#include "magic_wand_model_data.h"


// We need to keep the data array aligned on some architectures.

#ifdef __has_attribute

#define HAVE_ATTRIBUTE(x) __has_attribute(x)

#else

#define HAVE_ATTRIBUTE(x) 0

#endif

#if HAVE_ATTRIBUTE(aligned) || (defined(__GNUC__) && !defined(__clang__))

#define DATA_ALIGN_ATTRIBUTE __attribute__((aligned(4)))

#else

#define DATA_ALIGN_ATTRIBUTE

#endif


const unsigned char g_magic_wand_model_data[] DATA_ALIGN_ATTRIBUTE = {

  // Paste the data of the char array in `src/model.cc` here
    0x1c, 0x00, 0x00, 0x00, 0x54, 0x46, 0x4c, 0x33, 0x14, 0x00, 0x20, 0x00,
  0x04, 0x00, 0x08, 0x00, 0x0c, 0x00, 0x10, 0x00, 0x14, 0x00, 0x00, 0x00,
  0x18, 0x00, 0x1c, 0x00, 0x14, 0x00, 0x00, 0x00, 0x03, 0x00, 0x00, 0x00,
  0x18, 0x00, 0x00, 0x00, 0x2c, 0x00, 0x00, 0x00, 0xd8, 0x00, 0x00, 0x00,
  0x2c, 0x00, 0x00, 0x00, 0x80, 0x00, 0x00, 0x00, 0x78, 0x00, 0x00, 0x00,
  0x05, 0x00, 0x00, 0x00, 0x28, 0x07, 0x00, 0x00, 0x44, 0x06, 0x00, 0x00,
  0xbc, 0x03, 0x00, 0x00, 0xf8, 0x02, 0x00, 0x00, 0xac, 0x01, 0x00, 0x00,
  0x01, 0x00, 0x00, 0x00, 0xd0, 0x00, 0x00, 0x00, 0x14, 0x00, 0x00, 0x00,
  0x98, 0x32, 0x00, 0x00, 0x94, 0x32, 0x00, 0x00, 0x8c, 0x31, 0x00, 0x00,
  0xd8, 0x30, 0x00, 0x00, 0x30, 0x30, 0x00, 0x00, 0xbc, 0x2f, 0x00, 0x00,
  0x50, 0x2f, 0x00, 0x00, 0x00, 0x13, 0x00, 0x00, 0xec, 0x11, 0x00, 0x00,
  0x10, 0x10, 0x00, 0x00, 0xb4, 0x07, 0x00, 0x00, 0x6c, 0x32, 0x00, 0x00,
  0x68, 0x32, 0x00, 0x00, 0x64, 0x32, 0x00, 0x00, 0x60, 0x32, 0x00, 0x00,
  0x5c, 0x32, 0x00, 0x00, 0x58, 0x32, 0x00, 0x00, 0x54, 0x32, 0x00, 0x00,
  0x50, 0x32, 0x00, 0x00, 0x3c, 0x00, 0x00, 0x00, 0x00, 0x00, 0x00, 0x00,
  0x01, 0x00, 0x00, 0x00, 0x0c, 0x00, 0x00, 0x00, 0x08, 0x00, 0x0c, 0x00,
  0x04, 0x00, 0x08, 0x00, 0x08, 0x00, 0x00, 0x00, 0x08, 0x00, 0x00, 0x00,
  0x13, 0x00, 0x00, 0x00, 0x13, 0x00, 0x00, 0x00, 0x6d, 0x69, 0x6e, 0x5f,
  0x72, 0x75, 0x6e, 0x74, 0x69, 0x6d, 0x65, 0x5f, 0x76, 0x65, 0x72, 0x73,
  0x69, 0x6f, 0x6e, 0x00, 0xfa, 0xce, 0xff, 0xff, 0x04, 0x00, 0x00, 0x00,
  0x10, 0x00, 0x00, 0x00, 0x31, 0x2e, 0x35, 0x2e, 0x30, 0x00, 0x00, 0x00,
  0x00, 0x00, 0x00, 0x00, 0x00, 0x00, 0x00, 0x00, 0x0f, 0x00, 0x00, 0x00,
  0x4d, 0x4c, 0x49, 0x52, 0x20, 0x43, 0x6f, 0x6e, 0x76, 0x65, 0x72, 0x74,
  0x65, 0x64, 0x2e, 0x00, 0x00, 0x00, 0x0e, 0x00, 0x18, 0x00, 0x04, 0x00,
  0x08, 0x00, 0x0c, 0x00, 0x10, 0x00, 0x14, 0x00, 0x0e, 0x00, 0x00, 0x00,
  0x14, 0x00, 0x00, 0x00, 0x5c, 0x00, 0x00, 0x00, 0x60, 0x00, 0x00, 0x00,
  0x64, 0x00, 0x00, 0x00, 0x84, 0x00, 0x00, 0x00, 0x12, 0x00, 0x00, 0x00,
  0x58, 0x31, 0x00, 0x00, 0xe8, 0x30, 0x00, 0x00, 0x44, 0x30, 0x00, 0x00,
  0x9c, 0x2f, 0x00, 0x00, 0xf4, 0x2e, 0x00, 0x00, 0x94, 0x2e, 0x00, 0x00,
  0x2c, 0x2e, 0x00, 0x00, 0xd8, 0x11, 0x00, 0x00, 0xbc, 0x10, 0x00, 0x00,
  0xe0, 0x0e, 0x00, 0x00, 0x0c, 0x06, 0x00, 0x00, 0x28, 0x05, 0x00, 0x00,
  0xe8, 0x03, 0x00, 0x00, 0x3c, 0x03, 0x00, 0x00, 0x98, 0x02, 0x00, 0x00,
  0xd4, 0x01, 0x00, 0x00, 0x10, 0x01, 0x00, 0x00, 0x84, 0x00, 0x00, 0x00,
  0x01, 0x00, 0x00, 0x00, 0x00, 0x00, 0x00, 0x00, 0x01, 0x00, 0x00, 0x00,
  0x11, 0x00, 0x00, 0x00, 0x08, 0x00, 0x00, 0x00, 0x74, 0x05, 0x00, 0x00,
  0x94, 0x04, 0x00, 0x00, 0x78, 0x03, 0x00, 0x00, 0xbc, 0x02, 0x00, 0x00,
  0x30, 0x02, 0x00, 0x00, 0x50, 0x01, 0x00, 0x00, 0xa8, 0x00, 0x00, 0x00,
  0x10, 0x00, 0x00, 0x00, 0x04, 0x00, 0x00, 0x00, 0x6d, 0x61, 0x69, 0x6e,
  0x00, 0x00, 0x00, 0x00, 0x7a, 0xff, 0xff, 0xff, 0x00, 0x00, 0x00, 0x09,
  0x04, 0x00, 0x00, 0x00, 0x1c, 0x00, 0x00, 0x00, 0x10, 0x00, 0x00, 0x00,
  0x04, 0x00, 0x00, 0x00, 0xf6, 0xcf, 0xff, 0xff, 0x00, 0x00, 0x80, 0x3f,
  0x01, 0x00, 0x00, 0x00, 0x11, 0x00, 0x00, 0x00, 0x01, 0x00, 0x00, 0x00,
  0x10, 0x00, 0x00, 0x00, 0xa0, 0xfa, 0xff, 0xff, 0x19, 0x00, 0x00, 0x00,
  0x00, 0x00, 0x00, 0x19, 0x01, 0x00, 0x00, 0x00, 0x84, 0xcf, 0xff, 0xff,
  0x14, 0x00, 0x00, 0x00, 0x12, 0x00, 0x00, 0x00, 0x18, 0x00, 0x00, 0x00,
  0x30, 0x00, 0x00, 0x00, 0x20, 0x00, 0x00, 0x00, 0x02, 0x00, 0x00, 0x00,
  0x01, 0x00, 0x00, 0x00, 0x03, 0x00, 0x00, 0x00, 0x08, 0x00, 0x00, 0x00,
  0x49, 0x64, 0x65, 0x6e, 0x74, 0x69, 0x74, 0x79, 0x00, 0x00, 0x00, 0x00,
  0x02, 0x00, 0x00, 0x00, 0xff, 0xff, 0xff, 0xff, 0x03, 0x00, 0x00, 0x00,
  0x68, 0xd0, 0xff, 0xff, 0x00, 0x00, 0x0e, 0x00, 0x18, 0x00, 0x08, 0x00,
  0x0c, 0x00, 0x10, 0x00, 0x07, 0x00, 0x14, 0x00, 0x0e, 0x00, 0x00, 0x00,
  0x00, 0x00, 0x00, 0x08, 0x03, 0x00, 0x00, 0x00, 0x18, 0x00, 0x00, 0x00,
  0x0c, 0x00, 0x00, 0x00, 0x04, 0x00, 0x00, 0x00, 0x84, 0xcf, 0xff, 0xff,
  0x01, 0x00, 0x00, 0x00, 0x10, 0x00, 0x00, 0x00, 0x03, 0x00, 0x00, 0x00,
  0x0f, 0x00, 0x00, 0x00, 0x07, 0x00, 0x00, 0x00, 0x04, 0x00, 0x00, 0x00,
  0x0c, 0xd0, 0xff, 0xff, 0x14, 0x00, 0x00, 0x00, 0x11, 0x00, 0x00, 0x00,
  0x18, 0x00, 0x00, 0x00, 0x5c, 0x00, 0x00, 0x00, 0x4c, 0x00, 0x00, 0x00,
  0x02, 0x00, 0x00, 0x00, 0x01, 0x00, 0x00, 0x00, 0x03, 0x00, 0x00, 0x00,
  0x34, 0x00, 0x00, 0x00, 0x73, 0x65, 0x71, 0x75, 0x65, 0x6e, 0x74, 0x69,
  0x61, 0x6c, 0x2f, 0x64, 0x65, 0x6e, 0x73, 0x65, 0x5f, 0x31, 0x2f, 0x4d,
  0x61, 0x74, 0x4d, 0x75, 0x6c, 0x3b, 0x73, 0x65, 0x71, 0x75, 0x65, 0x6e,
  0x74, 0x69, 0x61, 0x6c, 0x2f, 0x64, 0x65, 0x6e, 0x73, 0x65, 0x5f, 0x31,
  0x2f, 0x42, 0x69, 0x61, 0x73, 0x41, 0x64, 0x64, 0x00, 0x00, 0x00, 0x00,
  0x02, 0x00, 0x00, 0x00, 0xff, 0xff, 0xff, 0xff, 0x03, 0x00, 0x00, 0x00,
  0x0c, 0xd0, 0xff, 0xff, 0xda, 0xfc, 0xff, 0xff, 0x00, 0x00, 0x00, 0x08,
  0x03, 0x00, 0x00, 0x00, 0x24, 0x00, 0x00, 0x00, 0x18, 0x00, 0x00, 0x00,
  0x0c, 0x00, 0x00, 0x00, 0x00, 0x00, 0x06, 0x00, 0x08, 0x00, 0x07, 0x00,
  0x06, 0x00, 0x00, 0x00, 0x00, 0x00, 0x00, 0x01, 0x01, 0x00, 0x00, 0x00,
  0x0f, 0x00, 0x00, 0x00, 0x03, 0x00, 0x00, 0x00, 0x0e, 0x00, 0x00, 0x00,
  0x06, 0x00, 0x00, 0x00, 0x03, 0x00, 0x00, 0x00, 0xe8, 0xfb, 0xff, 0xff,
  0x09, 0x00, 0x00, 0x00, 0x00, 0x00, 0x00, 0x09, 0x01, 0x00, 0x00, 0x00,
  0xcc, 0xd0, 0xff, 0xff, 0x14, 0x00, 0x00, 0x00, 0x10, 0x00, 0x00, 0x00,
  0x18, 0x00, 0x00, 0x00, 0x6c, 0x00, 0x00, 0x00, 0x5c, 0x00, 0x00, 0x00,
  0x02, 0x00, 0x00, 0x00, 0x01, 0x00, 0x00, 0x00, 0x10, 0x00, 0x00, 0x00,
  0x46, 0x00, 0x00, 0x00, 0x73, 0x65, 0x71, 0x75, 0x65, 0x6e, 0x74, 0x69,
  0x61, 0x6c, 0x2f, 0x64, 0x65, 0x6e, 0x73, 0x65, 0x2f, 0x4d, 0x61, 0x74,
  0x4d, 0x75, 0x6c, 0x3b, 0x73, 0x65, 0x71, 0x75, 0x65, 0x6e, 0x74, 0x69,
  0x61, 0x6c, 0x2f, 0x64, 0x65, 0x6e, 0x73, 0x65, 0x2f, 0x52, 0x65, 0x6c,
  0x75, 0x3b, 0x73, 0x65, 0x71, 0x75, 0x65, 0x6e, 0x74, 0x69, 0x61, 0x6c,
  0x2f, 0x64, 0x65, 0x6e, 0x73, 0x65, 0x2f, 0x42, 0x69, 0x61, 0x73, 0x41,
  0x64, 0x64, 0x00, 0x00, 0x02, 0x00, 0x00, 0x00, 0xff, 0xff, 0xff, 0xff,
  0x10, 0x00, 0x00, 0x00, 0xec, 0xd1, 0xff, 0xff, 0x00, 0x00, 0x0a, 0x00,
  0x10, 0x00, 0x04, 0x00, 0x08, 0x00, 0x0c, 0x00, 0x0a, 0x00, 0x00, 0x00,
  0x02, 0x00, 0x00, 0x00, 0x10, 0x00, 0x00, 0x00, 0x04, 0x00, 0x00, 0x00,
  0x01, 0x00, 0x00, 0x00, 0x0e, 0x00, 0x00, 0x00, 0x02, 0x00, 0x00, 0x00,
  0x0d, 0x00, 0x00, 0x00, 0x05, 0x00, 0x00, 0x00, 0xa8, 0xfc, 0xff, 0xff,
  0x16, 0x00, 0x00, 0x00, 0x00, 0x00, 0x00, 0x16, 0x01, 0x00, 0x00, 0x00,
  0x8c, 0xd1, 0xff, 0xff, 0x14, 0x00, 0x00, 0x00, 0x0f, 0x00, 0x00, 0x00,
  0x18, 0x00, 0x00, 0x00, 0x40, 0x00, 0x00, 0x00, 0x30, 0x00, 0x00, 0x00,
  0x02, 0x00, 0x00, 0x00, 0x01, 0x00, 0x00, 0x00, 0x70, 0x00, 0x00, 0x00,
  0x1a, 0x00, 0x00, 0x00, 0x73, 0x65, 0x71, 0x75, 0x65, 0x6e, 0x74, 0x69,
  0x61, 0x6c, 0x2f, 0x66, 0x6c, 0x61, 0x74, 0x74, 0x65, 0x6e, 0x2f, 0x52,
  0x65, 0x73, 0x68, 0x61, 0x70, 0x65, 0x00, 0x00, 0x02, 0x00, 0x00, 0x00,
  0xff, 0xff, 0xff, 0xff, 0x70, 0x00, 0x00, 0x00, 0x70, 0xd1, 0xff, 0xff,
  0x3e, 0xfe, 0xff, 0xff, 0x00, 0x00, 0x00, 0x05, 0x01, 0x00, 0x00, 0x00,
  0x38, 0x00, 0x00, 0x00, 0x2c, 0x00, 0x00, 0x00, 0x14, 0x00, 0x00, 0x00,
  0x00, 0x00, 0x0e, 0x00, 0x14, 0x00, 0x00, 0x00, 0x10, 0x00, 0x0c, 0x00,
  0x08, 0x00, 0x04, 0x00, 0x0e, 0x00, 0x00, 0x00, 0x03, 0x00, 0x00, 0x00,
  0x01, 0x00, 0x00, 0x00, 0x03, 0x00, 0x00, 0x00, 0x01, 0x00, 0x00, 0x00,
  0x01, 0x00, 0x00, 0x00, 0x0d, 0x00, 0x00, 0x00, 0x01, 0x00, 0x00, 0x00,
  0x0c, 0x00, 0x00, 0x00, 0x2c, 0xd2, 0xff, 0xff, 0x14, 0x00, 0x00, 0x00,
  0x0e, 0x00, 0x00, 0x00, 0x20, 0x00, 0x00, 0x00, 0x58, 0x00, 0x00, 0x00,
  0x40, 0x00, 0x00, 0x00, 0x04, 0x00, 0x00, 0x00, 0x01, 0x00, 0x00, 0x00,
  0x07, 0x00, 0x00, 0x00, 0x01, 0x00, 0x00, 0x00, 0x10, 0x00, 0x00, 0x00,
  0x22, 0x00, 0x00, 0x00, 0x73, 0x65, 0x71, 0x75, 0x65, 0x6e, 0x74, 0x69,
  0x61, 0x6c, 0x2f, 0x6d, 0x61, 0x78, 0x5f, 0x70, 0x6f, 0x6f, 0x6c, 0x69,
  0x6e, 0x67, 0x32, 0x64, 0x5f, 0x31, 0x2f, 0x4d, 0x61, 0x78, 0x50, 0x6f,
  0x6f, 0x6c, 0x00, 0x00, 0x04, 0x00, 0x00, 0x00, 0xff, 0xff, 0xff, 0xff,
  0x07, 0x00, 0x00, 0x00, 0x01, 0x00, 0x00, 0x00, 0x10, 0x00, 0x00, 0x00,
  0x28, 0xd2, 0xff, 0xff, 0x1a, 0xfe, 0xff, 0xff, 0x00, 0x00, 0x00, 0x01,
  0x24, 0x00, 0x00, 0x00, 0x18, 0x00, 0x00, 0x00, 0x04, 0x00, 0x00, 0x00,
  0x0c, 0xfe, 0xff, 0xff, 0x01, 0x00, 0x00, 0x00, 0x01, 0x00, 0x00, 0x00,
  0x00, 0x00, 0x00, 0x01, 0x01, 0x00, 0x00, 0x00, 0x0c, 0x00, 0x00, 0x00,
  0x03, 0x00, 0x00, 0x00, 0x0b, 0x00, 0x00, 0x00, 0x09, 0x00, 0x00, 0x00,
  0x02, 0x00, 0x00, 0x00, 0xd4, 0xd2, 0xff, 0xff, 0x14, 0x00, 0x00, 0x00,
  0x0d, 0x00, 0x00, 0x00, 0x20, 0x00, 0x00, 0x00, 0xb8, 0x00, 0x00, 0x00,
  0xa0, 0x00, 0x00, 0x00, 0x04, 0x00, 0x00, 0x00, 0x01, 0x00, 0x00, 0x00,
  0x15, 0x00, 0x00, 0x00, 0x01, 0x00, 0x00, 0x00, 0x10, 0x00, 0x00, 0x00,
  0x83, 0x00, 0x00, 0x00, 0x73, 0x65, 0x71, 0x75, 0x65, 0x6e, 0x74, 0x69,
  0x61, 0x6c, 0x2f, 0x63, 0x6f, 0x6e, 0x76, 0x32, 0x64, 0x5f, 0x31, 0x2f,
  0x52, 0x65, 0x6c, 0x75, 0x3b, 0x73, 0x65, 0x71, 0x75, 0x65, 0x6e, 0x74,
  0x69, 0x61, 0x6c, 0x2f, 0x63, 0x6f, 0x6e, 0x76, 0x32, 0x64, 0x5f, 0x31,
  0x2f, 0x42, 0x69, 0x61, 0x73, 0x41, 0x64, 0x64, 0x3b, 0x73, 0x65, 0x71,
  0x75, 0x65, 0x6e, 0x74, 0x69, 0x61, 0x6c, 0x2f, 0x63, 0x6f, 0x6e, 0x76,
  0x32, 0x64, 0x5f, 0x31, 0x2f, 0x43, 0x6f, 0x6e, 0x76, 0x32, 0x44, 0x3b,
  0x73, 0x65, 0x71, 0x75, 0x65, 0x6e, 0x74, 0x69, 0x61, 0x6c, 0x2f, 0x63,
  0x6f, 0x6e, 0x76, 0x32, 0x64, 0x5f, 0x31, 0x2f, 0x42, 0x69, 0x61, 0x73,
  0x41, 0x64, 0x64, 0x2f, 0x52, 0x65, 0x61, 0x64, 0x56, 0x61, 0x72, 0x69,
  0x61, 0x62, 0x6c, 0x65, 0x4f, 0x70, 0x2f, 0x72, 0x65, 0x73, 0x6f, 0x75,
  0x72, 0x63, 0x65, 0x00, 0x04, 0x00, 0x00, 0x00, 0xff, 0xff, 0xff, 0xff,
  0x15, 0x00, 0x00, 0x00, 0x01, 0x00, 0x00, 0x00, 0x10, 0x00, 0x00, 0x00,
  0x40, 0xd4, 0xff, 0xff, 0x00, 0x00, 0x0e, 0x00, 0x1a, 0x00, 0x08, 0x00,
  0x0c, 0x00, 0x10, 0x00, 0x07, 0x00, 0x14, 0x00, 0x0e, 0x00, 0x00, 0x00,
  0x00, 0x00, 0x00, 0x05, 0x01, 0x00, 0x00, 0x00, 0x3c, 0x00, 0x00, 0x00,
  0x30, 0x00, 0x00, 0x00, 0x14, 0x00, 0x00, 0x00, 0x00, 0x00, 0x0e, 0x00,
  0x18, 0x00, 0x17, 0x00, 0x10, 0x00, 0x0c, 0x00, 0x08, 0x00, 0x04, 0x00,
  0x0e, 0x00, 0x00, 0x00, 0x03, 0x00, 0x00, 0x00, 0x03, 0x00, 0x00, 0x00,
  0x03, 0x00, 0x00, 0x00, 0x03, 0x00, 0x00, 0x00, 0x00, 0x00, 0x00, 0x01,
  0x01, 0x00, 0x00, 0x00, 0x0b, 0x00, 0x00, 0x00, 0x01, 0x00, 0x00, 0x00,
  0x0a, 0x00, 0x00, 0x00, 0x2c, 0xff, 0xff, 0xff, 0x11, 0x00, 0x00, 0x00,
  0x00, 0x00, 0x00, 0x11, 0x01, 0x00, 0x00, 0x00, 0x10, 0xd4, 0xff, 0xff,
  0x14, 0x00, 0x00, 0x00, 0x0c, 0x00, 0x00, 0x00, 0x20, 0x00, 0x00, 0x00,
  0x58, 0x00, 0x00, 0x00, 0x40, 0x00, 0x00, 0x00, 0x04, 0x00, 0x00, 0x00,
  0x01, 0x00, 0x00, 0x00, 0x15, 0x00, 0x00, 0x00, 0x01, 0x00, 0x00, 0x00,
  0x08, 0x00, 0x00, 0x00, 0x20, 0x00, 0x00, 0x00, 0x73, 0x65, 0x71, 0x75,
  0x65, 0x6e, 0x74, 0x69, 0x61, 0x6c, 0x2f, 0x6d, 0x61, 0x78, 0x5f, 0x70,
  0x6f, 0x6f, 0x6c, 0x69, 0x6e, 0x67, 0x32, 0x64, 0x2f, 0x4d, 0x61, 0x78,
  0x50, 0x6f, 0x6f, 0x6c, 0x00, 0x00, 0x00, 0x00, 0x04, 0x00, 0x00, 0x00,
  0xff, 0xff, 0xff, 0xff, 0x15, 0x00, 0x00, 0x00, 0x01, 0x00, 0x00, 0x00,
  0x08, 0x00, 0x00, 0x00, 0x1c, 0xd5, 0xff, 0xff, 0x00, 0x00, 0x0e, 0x00,
  0x14, 0x00, 0x00, 0x00, 0x08, 0x00, 0x0c, 0x00, 0x07, 0x00, 0x10, 0x00,
  0x0e, 0x00, 0x00, 0x00, 0x00, 0x00, 0x00, 0x01, 0x30, 0x00, 0x00, 0x00,
  0x24, 0x00, 0x00, 0x00, 0x10, 0x00, 0x00, 0x00, 0x0c, 0x00, 0x10, 0x00,
  0x00, 0x00, 0x04, 0x00, 0x08, 0x00, 0x0f, 0x00, 0x0c, 0x00, 0x00, 0x00,
  0x01, 0x00, 0x00, 0x00, 0x01, 0x00, 0x00, 0x00, 0x00, 0x00, 0x00, 0x01,
  0x01, 0x00, 0x00, 0x00, 0x0a, 0x00, 0x00, 0x00, 0x03, 0x00, 0x00, 0x00,
  0x00, 0x00, 0x00, 0x00, 0x08, 0x00, 0x00, 0x00, 0x01, 0x00, 0x00, 0x00,
  0x0c, 0x00, 0x10, 0x00, 0x0b, 0x00, 0x00, 0x00, 0x0c, 0x00, 0x04, 0x00,
  0x0c, 0x00, 0x00, 0x00, 0x03, 0x00, 0x00, 0x00, 0x00, 0x00, 0x00, 0x03,
  0x01, 0x00, 0x00, 0x00, 0xf0, 0xd4, 0xff, 0xff, 0x14, 0x00, 0x00, 0x00,
  0x0b, 0x00, 0x00, 0x00, 0x20, 0x00, 0x00, 0x00, 0xb0, 0x00, 0x00, 0x00,
  0x98, 0x00, 0x00, 0x00, 0x04, 0x00, 0x00, 0x00, 0x01, 0x00, 0x00, 0x00,
  0x40, 0x00, 0x00, 0x00, 0x03, 0x00, 0x00, 0x00, 0x08, 0x00, 0x00, 0x00,
  0x7b, 0x00, 0x00, 0x00, 0x73, 0x65, 0x71, 0x75, 0x65, 0x6e, 0x74, 0x69,
  0x61, 0x6c, 0x2f, 0x63, 0x6f, 0x6e, 0x76, 0x32, 0x64, 0x2f, 0x52, 0x65,
  0x6c, 0x75, 0x3b, 0x73, 0x65, 0x71, 0x75, 0x65, 0x6e, 0x74, 0x69, 0x61,
  0x6c, 0x2f, 0x63, 0x6f, 0x6e, 0x76, 0x32, 0x64, 0x2f, 0x42, 0x69, 0x61,
  0x73, 0x41, 0x64, 0x64, 0x3b, 0x73, 0x65, 0x71, 0x75, 0x65, 0x6e, 0x74,
  0x69, 0x61, 0x6c, 0x2f, 0x63, 0x6f, 0x6e, 0x76, 0x32, 0x64, 0x2f, 0x43,
  0x6f, 0x6e, 0x76, 0x32, 0x44, 0x3b, 0x73, 0x65, 0x71, 0x75, 0x65, 0x6e,
  0x74, 0x69, 0x61, 0x6c, 0x2f, 0x63, 0x6f, 0x6e, 0x76, 0x32, 0x64, 0x2f,
  0x42, 0x69, 0x61, 0x73, 0x41, 0x64, 0x64, 0x2f, 0x52, 0x65, 0x61, 0x64,
  0x56, 0x61, 0x72, 0x69, 0x61, 0x62, 0x6c, 0x65, 0x4f, 0x70, 0x2f, 0x72,
  0x65, 0x73, 0x6f, 0x75, 0x72, 0x63, 0x65, 0x00, 0x04, 0x00, 0x00, 0x00,
  0xff, 0xff, 0xff, 0xff, 0x40, 0x00, 0x00, 0x00, 0x03, 0x00, 0x00, 0x00,
  0x08, 0x00, 0x00, 0x00, 0x44, 0xd5, 0xff, 0xff, 0x4e, 0xd6, 0xff, 0xff,
  0x04, 0x00, 0x00, 0x00, 0x00, 0x08, 0x00, 0x00, 0x96, 0x8a, 0x03, 0xbe,
  0xb4, 0xe1, 0x2a, 0xbe, 0xbd, 0x19, 0x10, 0x3d, 0xf2, 0xf3, 0xed, 0xbd,
  0x11, 0x4d, 0x8f, 0x3d, 0x50, 0x51, 0x75, 0x3e, 0x8a, 0xf3, 0x87, 0x3e,
  0xe0, 0x33, 0x7e, 0xbe, 0x73, 0xbd, 0xcf, 0xbd, 0xb7, 0x0f, 0xa6, 0x3e,
  0x6c, 0x02, 0x1a, 0xbe, 0x12, 0xf2, 0x72, 0xbe, 0xba, 0x1a, 0x48, 0xbd,
  0x17, 0x0c, 0x1e, 0xbe, 0x05, 0x51, 0x21, 0xbd, 0x95, 0xd4, 0x42, 0xbe,
  0x7b, 0xbb, 0xc3, 0xbd, 0x34, 0x4f, 0x5a, 0x3c, 0x7a, 0x2f, 0xf6, 0x3e,
  0xe5, 0x01, 0x2c, 0xbe, 0x69, 0x09, 0xd0, 0xbc, 0x24, 0xe9, 0x0a, 0xbe,
  0x38, 0x99, 0x24, 0xbd, 0xa7, 0x41, 0xef, 0xbd, 0x4f, 0xe5, 0x4a, 0x3d,
  0x81, 0xd2, 0x07, 0xbd, 0xac, 0x72, 0x09, 0xbd, 0xcd, 0x25, 0x08, 0xbe,
  0x96, 0xc4, 0xd7, 0x3d, 0xaa, 0x24, 0x7d, 0x3d, 0x62, 0x52, 0x99, 0x3e,
  0x9c, 0xd8, 0x02, 0xbe, 0x58, 0x2f, 0x0e, 0xbe, 0x7f, 0xda, 0x15, 0xbc,
  0xd4, 0xe9, 0x43, 0x3d, 0x00, 0xce, 0x13, 0xbe, 0x11, 0xbf, 0xfe, 0x3c,
  0x22, 0x27, 0xa0, 0x3d, 0x1e, 0x5e, 0x00, 0xbe, 0x07, 0xa9, 0xf2, 0xbd,
  0xa4, 0xaa, 0xd0, 0x3c, 0x86, 0x98, 0x1b, 0xbc, 0xec, 0xb6, 0xa5, 0x3c,
  0x4d, 0x4c, 0xfc, 0xbd, 0x00, 0x21, 0x7b, 0x3e, 0x5d, 0x11, 0x4b, 0x3e,
  0xef, 0x31, 0xf1, 0xbc, 0x51, 0x19, 0xf8, 0xbd, 0x09, 0x8f, 0xf3, 0x3c,
  0x8e, 0xca, 0x4a, 0x3e, 0x3f, 0x30, 0x09, 0x3e, 0xd7, 0x2d, 0x12, 0xbd,
  0x73, 0x08, 0xc9, 0x3e, 0x15, 0x7b, 0x3e, 0x3d, 0xba, 0x02, 0x22, 0x3d,
  0x2e, 0xca, 0x09, 0x3e, 0xed, 0xc5, 0x9e, 0xbd, 0xb0, 0xaa, 0x11, 0xbe,
  0xfc, 0xd7, 0x45, 0x3b, 0xc6, 0xad, 0x0e, 0xbe, 0xd0, 0xea, 0x2c, 0xbe,
  0x0c, 0x88, 0x0f, 0x3e, 0x47, 0x41, 0xb4, 0xbd, 0x29, 0xfd, 0xae, 0x3d,
  0x6e, 0xa3, 0x90, 0xbd, 0x8b, 0x7d, 0x8c, 0xbe, 0xee, 0x7c, 0x96, 0xbe,
  0x9f, 0xda, 0x19, 0xbd, 0x6b, 0x52, 0xaf, 0x3d, 0x73, 0xcb, 0x37, 0x3e,
  0x4b, 0x77, 0xca, 0xbd, 0x97, 0x22, 0x11, 0xbe, 0x59, 0x12, 0x87, 0xbd,
  0xa6, 0xde, 0x3b, 0xbe, 0xbf, 0x4d, 0x1c, 0xbe, 0x40, 0xc6, 0x53, 0xbc,
  0xc1, 0x03, 0x3f, 0xbe, 0x77, 0xb9, 0x2a, 0x3e, 0xe2, 0x33, 0x33, 0xbd,
  0xff, 0x7e, 0xf7, 0xbd, 0x91, 0xe4, 0xfb, 0x3b, 0xb9, 0x33, 0x7c, 0xbc,
  0x77, 0xea, 0x4d, 0x3e, 0x7a, 0x3e, 0xae, 0x3b, 0xe3, 0x5a, 0x8a, 0xbc,
  0x09, 0x7e, 0x80, 0xbe, 0xd1, 0xa9, 0x90, 0xbd, 0x0f, 0xbd, 0x14, 0xbe,
  0x0f, 0xc6, 0x0c, 0x3e, 0x3b, 0x8a, 0x0b, 0x3f, 0xfc, 0x00, 0x92, 0x3e,
  0x14, 0xba, 0x58, 0xb9, 0x03, 0xfb, 0x3f, 0xba, 0xba, 0xdc, 0xcb, 0xbc,
  0xfd, 0xe1, 0x96, 0xbd, 0x62, 0x3e, 0xed, 0x3d, 0x61, 0x7a, 0x14, 0xbe,
  0x16, 0x92, 0x98, 0x3c, 0x1c, 0x9f, 0x55, 0x3e, 0x27, 0x84, 0x16, 0x3d,
  0x56, 0xb2, 0xab, 0x3d, 0x2a, 0xc0, 0x9f, 0xbd, 0x77, 0xd5, 0x84, 0x3e,
  0x98, 0xdc, 0xa5, 0xbd, 0x87, 0x24, 0x4b, 0xbd, 0xf4, 0xf5, 0xaa, 0xbc,
  0x43, 0x3c, 0x9f, 0xbe, 0xf5, 0x33, 0x43, 0xba, 0x2f, 0x5f, 0x2e, 0xbe,
  0xe8, 0x14, 0x96, 0xbe, 0x76, 0x9e, 0x32, 0x3e, 0xdf, 0x50, 0xf7, 0xbc,
  0x05, 0x59, 0x59, 0xbc, 0x6c, 0x37, 0x36, 0xbe, 0xc8, 0xd8, 0xa2, 0xbd,
  0x53, 0xc3, 0x7d, 0x3c, 0xa2, 0x23, 0x06, 0x3e, 0x67, 0x03, 0x9d, 0xbd,
  0x45, 0x10, 0x4e, 0x3c, 0xd7, 0x53, 0x75, 0x3d, 0xca, 0x7e, 0x02, 0x3e,
  0x7a, 0x67, 0x1e, 0x3e, 0xb0, 0xe6, 0xd2, 0xbd, 0xb4, 0xfd, 0x1c, 0x3d,
  0x3d, 0xd3, 0xaa, 0xbd, 0x1d, 0xd7, 0xa3, 0xbd, 0x95, 0xea, 0x57, 0x3d,
  0x81, 0x53, 0x59, 0x3e, 0x90, 0x6b, 0xac, 0xbd, 0xd3, 0xc0, 0x1f, 0x3d,
  0x76, 0x2c, 0x64, 0x3e, 0xe3, 0x3a, 0xc3, 0x3c, 0x84, 0xe6, 0xbf, 0x3d,
  0x63, 0xd8, 0x82, 0x3e, 0x59, 0xa9, 0xbe, 0x3e, 0x53, 0x2b, 0xdc, 0xbd,
  0x4b, 0x19, 0xbe, 0x3c, 0x60, 0x8d, 0xb4, 0x3d, 0xc9, 0x9c, 0x0f, 0x3e,
  0x3a, 0x5d, 0x16, 0x3d, 0xa4, 0x56, 0x53, 0xbe, 0x09, 0xd7, 0x93, 0xbe,
  0x1b, 0x5c, 0xb2, 0xbd, 0x1e, 0x6e, 0x18, 0xbe, 0x0d, 0xb9, 0xe3, 0xbd,
  0x04, 0x1a, 0x77, 0xbe, 0x46, 0x55, 0x83, 0xbe, 0x85, 0xd9, 0x67, 0x3d,
  0x6b, 0xf3, 0xb1, 0x3b, 0x93, 0x66, 0x33, 0xbe, 0x81, 0xf4, 0x2a, 0xbd,
  0x6b, 0x75, 0x1e, 0xbd, 0x21, 0x80, 0xfa, 0x3a, 0x5e, 0xed, 0x26, 0xbd,
  0x7c, 0xb9, 0xcf, 0xbe, 0x3b, 0x5b, 0xe7, 0x3d, 0x45, 0x97, 0x8f, 0xbc,
  0x6f, 0x50, 0x40, 0xbc, 0x7d, 0x7a, 0x00, 0xbe, 0x28, 0xa1, 0xd1, 0xbd,
  0x16, 0x7b, 0xd9, 0xbd, 0x0c, 0x14, 0x8e, 0xbe, 0x32, 0x93, 0xaf, 0xbe,
  0xa7, 0x67, 0x95, 0xbc, 0xb2, 0xa8, 0x87, 0xbe, 0x51, 0x94, 0x13, 0xbf,
  0x73, 0x75, 0x2f, 0xbe, 0x18, 0x70, 0x51, 0xbe, 0x6e, 0x2f, 0x82, 0xbd,
  0x23, 0x6d, 0xa2, 0xbd, 0x7f, 0x8f, 0x80, 0xbe, 0x0b, 0x55, 0x83, 0x3d,
  0xd3, 0xcc, 0xca, 0xbd, 0x0b, 0x43, 0x6b, 0x3d, 0x16, 0x6c, 0x98, 0xbd,
  0x17, 0x70, 0x05, 0xbe, 0x3c, 0x7a, 0x39, 0xbd, 0x84, 0xa9, 0x55, 0xbe,
  0x5c, 0xda, 0xa2, 0xbe, 0xb4, 0x91, 0xae, 0x3c, 0xd8, 0x17, 0x40, 0xbe,
  0x75, 0xcf, 0x3f, 0x3e, 0x87, 0x4a, 0x4e, 0x3e, 0x61, 0xab, 0xa6, 0xbd,
  0xfa, 0x65, 0x04, 0xbe, 0xbc, 0xb4, 0x1a, 0xbd, 0x82, 0x70, 0xd8, 0x3d,
  0x2c, 0x62, 0xcd, 0xbc, 0xe4, 0xf3, 0x17, 0x3f, 0x16, 0xd4, 0x4d, 0x3d,
  0x16, 0x84, 0x32, 0xbc, 0x40, 0xf2, 0x04, 0xbe, 0x2f, 0x2e, 0x5c, 0xbe,
  0xa2, 0x52, 0xae, 0xbc, 0x5d, 0x81, 0x72, 0x3e, 0x52, 0xfd, 0x7c, 0xbe,
  0x82, 0xea, 0x92, 0x3e, 0x57, 0xd7, 0x3a, 0xbd, 0xf2, 0xb8, 0x11, 0x3e,
  0xcb, 0x8e, 0xfa, 0xbd, 0x2a, 0x8a, 0x5d, 0xbe, 0xd3, 0x7a, 0xa2, 0x3d,
  0xe9, 0xea, 0xeb, 0x3d, 0xe2, 0x61, 0x99, 0xbe, 0xed, 0xca, 0xf9, 0xbd,
  0x27, 0xf2, 0x6b, 0x3e, 0xfc, 0xb9, 0xa5, 0x3e, 0x69, 0x6c, 0xfd, 0xbd,
  0x76, 0x64, 0x29, 0xbe, 0x93, 0x2b, 0xdd, 0x3e, 0x79, 0x7c, 0x1e, 0x3d,
  0x04, 0x45, 0x9a, 0xbe, 0xad, 0x47, 0xa9, 0x3d, 0x39, 0x73, 0x3c, 0xbb,
  0xf7, 0x38, 0xd2, 0x3d, 0x1e, 0x94, 0x3d, 0xbd, 0xf0, 0xde, 0x39, 0xbe,
  0x24, 0xd5, 0x84, 0xbd, 0x9d, 0x21, 0xc1, 0x3e, 0x04, 0xb1, 0xa7, 0xbe,
  0x98, 0x61, 0x1f, 0x3e, 0xf7, 0xd8, 0xa9, 0xbc, 0xf6, 0xaa, 0xd6, 0xbd,
  0xcf, 0xdf, 0xf5, 0xbd, 0xd7, 0xa4, 0x75, 0xbe, 0xea, 0x5a, 0x2b, 0xbf,
  0xd5, 0xa5, 0x12, 0xbf, 0xdd, 0x43, 0xed, 0xbc, 0xb8, 0x5b, 0xb9, 0xbc,
  0x63, 0x72, 0x9e, 0x3c, 0x28, 0xee, 0xce, 0x3d, 0x44, 0xe4, 0xac, 0xbe,
  0xcf, 0xdc, 0x59, 0xbe, 0xd9, 0xaa, 0x0c, 0xbe, 0x92, 0xdf, 0x90, 0xb9,
  0x6a, 0x1d, 0x10, 0xbe, 0xbf, 0x9d, 0x75, 0x3e, 0x3a, 0xdd, 0x8a, 0x3e,
  0x93, 0x34, 0x81, 0x3e, 0xed, 0x44, 0xb9, 0xbe, 0xf6, 0xff, 0x34, 0xbe,
  0xaa, 0x44, 0x74, 0x3e, 0x86, 0x76, 0x8c, 0x3e, 0x13, 0x1f, 0x74, 0xbe,
  0xbe, 0x29, 0xa2, 0xbe, 0x9b, 0x08, 0x83, 0xbc, 0xec, 0x28, 0xd8, 0xbd,
  0x61, 0x2a, 0xce, 0xbc, 0x63, 0x0d, 0x30, 0xbd, 0xd6, 0x60, 0xb4, 0x3e,
  0x5d, 0xae, 0x12, 0xbe, 0x81, 0x6d, 0x16, 0xbe, 0xf3, 0x2b, 0x7c, 0xbe,
  0x6d, 0x8d, 0x9f, 0xbe, 0x85, 0x96, 0x6c, 0xbe, 0xeb, 0xac, 0x1d, 0x3d,
  0x1e, 0xa2, 0x9c, 0xbd, 0x58, 0x45, 0x4c, 0x3e, 0xbd, 0xb1, 0x3d, 0xbe,
  0x0c, 0xc5, 0x8b, 0xbe, 0x53, 0x48, 0x3b, 0xbe, 0x71, 0x07, 0x17, 0xbd,
  0x9c, 0x3a, 0x49, 0xbe, 0x0f, 0x73, 0x54, 0xbe, 0x95, 0x7d, 0x43, 0x3e,
  0xab, 0x8b, 0x63, 0x3d, 0x1e, 0x83, 0x0a, 0xbe, 0xdc, 0xf7, 0x1f, 0xbe,
  0xd7, 0xe6, 0xef, 0xbe, 0x38, 0xa2, 0x0f, 0x3e, 0x41, 0x90, 0x19, 0xbf,
  0x92, 0x5e, 0xf0, 0xbe, 0x88, 0x57, 0x4b, 0x3d, 0x8a, 0xef, 0x87, 0xbd,
  0x42, 0xae, 0xb6, 0x3d, 0x0e, 0x56, 0x64, 0xbe, 0x0f, 0xfc, 0x16, 0x3e,
  0xb7, 0xf9, 0x99, 0x3e, 0xff, 0x2e, 0xe5, 0xbd, 0xda, 0x9b, 0xf6, 0xbd,
  0xe4, 0x13, 0x4d, 0xbe, 0x03, 0x0f, 0x9b, 0x3a, 0x60, 0xf4, 0x6d, 0xbe,
  0x66, 0x27, 0xa3, 0xbd, 0x71, 0x8b, 0xe1, 0xbc, 0x62, 0x85, 0x9c, 0xbd,
  0xfc, 0x9c, 0xa0, 0xbd, 0x73, 0xf7, 0xc4, 0x3c, 0x82, 0x1f, 0x4d, 0xbd,
  0xee, 0xa7, 0xe8, 0xbe, 0x0a, 0x4e, 0x91, 0xbe, 0x1a, 0x72, 0x0a, 0x3d,
  0x0f, 0x74, 0x87, 0x3e, 0x52, 0x3c, 0x60, 0xb9, 0x29, 0xfa, 0xfa, 0x3c,
  0xc7, 0xbf, 0x6d, 0xbe, 0x9b, 0x76, 0x57, 0xbd, 0xcf, 0xd6, 0x04, 0xbf,
  0x48, 0xef, 0x64, 0xbd, 0x6b, 0x38, 0x81, 0xbd, 0x63, 0x19, 0x18, 0x3f,
  0xf2, 0xce, 0xe5, 0x3c, 0x49, 0x9f, 0x09, 0xbd, 0x23, 0xc2, 0xcb, 0xbe,
  0x9c, 0x82, 0x9b, 0xbd, 0xed, 0x0b, 0x55, 0xbc, 0xb2, 0xee, 0x2c, 0x3e,
  0x6b, 0x50, 0x56, 0xbe, 0x48, 0x4c, 0xbd, 0xbe, 0xb9, 0x6b, 0xb9, 0xbe,
  0x61, 0x5d, 0xb2, 0xbd, 0x7e, 0xf8, 0x4a, 0xbd, 0x2c, 0x99, 0xed, 0x3d,
  0x0a, 0xce, 0x74, 0x3d, 0xf6, 0x94, 0x43, 0x3e, 0x5d, 0x64, 0x2c, 0xbe,
  0x07, 0x88, 0xaf, 0xbd, 0xc2, 0x70, 0x4f, 0xbe, 0xbb, 0x14, 0x18, 0xbd,
  0xcf, 0x1f, 0x77, 0x3d, 0x9e, 0x08, 0xdd, 0x3e, 0xcb, 0xfc, 0x78, 0x3d,
  0x35, 0x96, 0x15, 0xbd, 0x4f, 0x82, 0xaa, 0x3d, 0xc3, 0x91, 0xbf, 0xbc,
  0x9c, 0x68, 0x83, 0x3e, 0x09, 0x1a, 0x38, 0xbe, 0x7c, 0xc2, 0x5f, 0x3e,
  0xc6, 0xe9, 0x7c, 0xbe, 0x50, 0xd6, 0xd8, 0x3c, 0xd8, 0x08, 0x8c, 0xbd,
  0x48, 0xe9, 0x1f, 0xbe, 0xef, 0x15, 0x0f, 0xbc, 0xaa, 0x44, 0x13, 0x3e,
  0x62, 0xd8, 0x8a, 0xbe, 0xac, 0x1e, 0xec, 0xbc, 0xf6, 0x6e, 0xb6, 0xbe,
  0x55, 0x2f, 0x88, 0xbe, 0xb9, 0xa2, 0x2c, 0xbb, 0x12, 0x69, 0x7c, 0xbe,
  0xb8, 0x14, 0xce, 0x3d, 0x4d, 0xd1, 0x81, 0x3e, 0x0c, 0xba, 0xbc, 0xbd,
  0x1e, 0x05, 0xcd, 0xbd, 0x06, 0x61, 0xd7, 0xbe, 0xfd, 0x84, 0xb6, 0xbe,
  0x87, 0x88, 0x95, 0xbd, 0x0f, 0x27, 0x23, 0xbe, 0x4f, 0xac, 0x66, 0xbc,
  0x81, 0xb7, 0x96, 0x3e, 0x6e, 0x15, 0x3d, 0xbd, 0xaf, 0xee, 0x8f, 0xbe,
  0x13, 0x16, 0x87, 0xbd, 0xaf, 0x7d, 0x7f, 0xbe, 0x56, 0xc3, 0x03, 0xbe,
  0xba, 0x61, 0x13, 0xbd, 0x4e, 0xa9, 0x54, 0xbe, 0xa8, 0x26, 0xaa, 0xbe,
  0x9f, 0x02, 0x49, 0x3b, 0x61, 0xec, 0x7f, 0xbd, 0x8f, 0x8e, 0x01, 0x3e,
  0xb8, 0xe9, 0x75, 0xbd, 0x26, 0x28, 0xf7, 0xbd, 0x0e, 0x40, 0x5d, 0xba,
  0x5e, 0x47, 0x8c, 0xbe, 0x36, 0x61, 0x89, 0xbb, 0xcb, 0x16, 0x24, 0xbf,
  0x89, 0x10, 0x58, 0xbd, 0xbf, 0xc0, 0xdb, 0x3d, 0x20, 0x28, 0xbd, 0x3d,
  0x80, 0xf1, 0x89, 0x3e, 0xc4, 0x34, 0x82, 0xbd, 0x34, 0x9d, 0xe7, 0x3d,
  0x4c, 0x8b, 0xdb, 0x3d, 0x7b, 0x7c, 0x03, 0xbf, 0xf2, 0xde, 0x11, 0x3e,
  0x11, 0xe8, 0x9c, 0xbc, 0x79, 0x4c, 0x5b, 0x3d, 0x16, 0x53, 0xb0, 0xbe,
  0x32, 0x83, 0xc2, 0xbd, 0x13, 0x25, 0xbc, 0x3c, 0xcc, 0xee, 0x8f, 0x3e,
  0xb3, 0xff, 0x4e, 0xbe, 0x87, 0xe0, 0x30, 0xbc, 0xb5, 0x5c, 0x8f, 0xbe,
  0xa8, 0xd6, 0xe5, 0xbd, 0xfe, 0x7d, 0xcc, 0x3e, 0xd1, 0x33, 0x74, 0xbe,
  0xe2, 0x41, 0x58, 0x3e, 0xdb, 0x7e, 0x20, 0x3e, 0x47, 0x7a, 0x0b, 0x3f,
  0x92, 0x8f, 0x1d, 0xbe, 0xd0, 0x73, 0x5e, 0xbe, 0xef, 0xce, 0x5e, 0x3e,
  0x7a, 0xed, 0xae, 0xbd, 0x87, 0x15, 0x99, 0xbe, 0xbe, 0x91, 0x85, 0xbe,
  0x25, 0xae, 0x09, 0xbf, 0x3e, 0x9a, 0x86, 0xbe, 0xfa, 0xad, 0x06, 0xbe,
  0x23, 0xa6, 0x31, 0xbd, 0x0c, 0xf7, 0xee, 0x3c, 0xfb, 0x8b, 0x91, 0xbd,
  0x33, 0x02, 0xdf, 0xbd, 0xc7, 0x24, 0xbb, 0x3d, 0x26, 0xe6, 0x56, 0xbd,
  0x9c, 0x7e, 0x6c, 0xbe, 0xd4, 0x8a, 0xb3, 0x3d, 0x6c, 0x2a, 0x8a, 0xbd,
  0xd1, 0x10, 0x14, 0xbd, 0x02, 0x40, 0xa5, 0xbe, 0x99, 0x94, 0x54, 0xbd,
  0xc6, 0x96, 0x28, 0x3d, 0xac, 0xe7, 0x58, 0x3e, 0x01, 0x10, 0xb0, 0xbe,
  0x63, 0x63, 0x5e, 0x3e, 0x51, 0xbc, 0x70, 0xbe, 0x02, 0x9b, 0x20, 0xbd,
  0xdb, 0x1c, 0x75, 0xbe, 0x21, 0x6d, 0x94, 0xbe, 0x25, 0x5e, 0x3f, 0xbe,
  0xec, 0xf5, 0x35, 0x3d, 0xc7, 0x5c, 0x68, 0xbe, 0xa7, 0x0d, 0x6f, 0xbe,
  0xb2, 0x46, 0x9f, 0xbe, 0x76, 0x8c, 0x57, 0xbd, 0xd8, 0xef, 0x6d, 0xbe,
  0x15, 0xd8, 0x9c, 0xbe, 0xb1, 0x82, 0x0b, 0xbe, 0x62, 0x1c, 0x13, 0x3d,
  0xe9, 0x65, 0xba, 0xbe, 0x69, 0x3e, 0xe8, 0xbd, 0x1e, 0xc3, 0x88, 0xbe,
  0x46, 0x10, 0x2d, 0xbc, 0x3c, 0x8a, 0xa3, 0x3b, 0xd2, 0x37, 0x92, 0xbe,
  0x3c, 0x7a, 0x89, 0xbe, 0x80, 0x6c, 0x79, 0xbe, 0x86, 0x77, 0x99, 0xbe,
  0x65, 0x9e, 0xc3, 0x3d, 0x38, 0xa6, 0x8c, 0xbe, 0x72, 0xf2, 0x1c, 0xbe,
  0x0e, 0x35, 0xf7, 0xbd, 0xb9, 0xed, 0x6c, 0xbe, 0xa6, 0x01, 0x55, 0xbe,
  0x62, 0xd7, 0xc5, 0x3c, 0x30, 0x8b, 0x98, 0xbe, 0xf0, 0xe6, 0xc4, 0x3d,
  0xa7, 0x4b, 0xcc, 0x3e, 0x03, 0x78, 0x55, 0x3d, 0x9d, 0xd9, 0x03, 0x3d,
  0xf0, 0xfe, 0xe2, 0x39, 0xb4, 0xbd, 0x91, 0x3e, 0x6d, 0x19, 0x08, 0x3f,
  0xc7, 0x70, 0x4f, 0xbe, 0x62, 0x1b, 0xb6, 0xbc, 0x9d, 0xfe, 0x01, 0xbe,
  0x23, 0x11, 0xa9, 0xbd, 0x1d, 0x00, 0x49, 0xbe, 0xa4, 0x63, 0xc8, 0xbd,
  0x02, 0x0f, 0xf2, 0xbd, 0x09, 0x4b, 0xb8, 0xbd, 0xe5, 0x40, 0xb1, 0xbe,
  0xdd, 0xb9, 0x4b, 0x3e, 0xe4, 0x68, 0x16, 0xbe, 0xf9, 0xd8, 0x97, 0xbe,
  0xf9, 0xfa, 0x09, 0xbe, 0xf4, 0xe7, 0x8a, 0xbd, 0xa5, 0xe3, 0xb5, 0x3b,
  0x18, 0x89, 0x0c, 0x3d, 0x37, 0xee, 0x63, 0xbe, 0xef, 0x0a, 0x94, 0xbd,
  0xae, 0x68, 0x19, 0xbe, 0x19, 0x40, 0x57, 0xbe, 0x1e, 0xa3, 0x89, 0xbd,
  0x3e, 0xc1, 0xa2, 0xbc, 0xa6, 0x97, 0xc5, 0x3c, 0xda, 0xc9, 0x5c, 0x3e,
  0x83, 0xd6, 0x40, 0xbe, 0x53, 0xce, 0xc8, 0xbd, 0xfc, 0x43, 0xa2, 0xbd,
  0x5b, 0x0a, 0x7e, 0xbd, 0x1f, 0xb4, 0x16, 0x3e, 0xbd, 0xf0, 0x5a, 0x3d,
  0x53, 0x9f, 0x31, 0x3f, 0xc7, 0x9d, 0xa0, 0xbd, 0x7d, 0x44, 0xed, 0xbc,
  0xf2, 0xea, 0xd2, 0xbd, 0x44, 0x30, 0xe2, 0xbd, 0x0e, 0xa1, 0xb9, 0xbe,
  0x15, 0xd4, 0x37, 0xbd, 0x19, 0x1f, 0x4c, 0xbc, 0xe0, 0xee, 0x1a, 0x3d,
  0xb0, 0x3a, 0x8a, 0x3c, 0x33, 0x92, 0x4c, 0xbc, 0x8b, 0xb8, 0x59, 0xbe,
  0x1c, 0x95, 0x87, 0x3c, 0xbe, 0x3a, 0x02, 0xbe, 0x13, 0x6f, 0x3d, 0x3d,
  0x5b, 0x01, 0xe7, 0x3c, 0x63, 0x2e, 0x4d, 0xbe, 0xbd, 0xd5, 0xd2, 0xbd,
  0xda, 0xd7, 0x47, 0x3c, 0x31, 0xae, 0x9c, 0xbe, 0x46, 0x2a, 0xcc, 0xbd,
  0x1c, 0x5f, 0xf1, 0xbe, 0x86, 0x86, 0xa3, 0xbe, 0x64, 0x78, 0xa8, 0xbc,
  0xf1, 0x1d, 0x7c, 0xbe, 0x18, 0x61, 0x23, 0xbe, 0xdd, 0xf4, 0x13, 0x3d,
  0x12, 0x22, 0xca, 0xbe, 0x26, 0xde, 0xff, 0xff, 0x10, 0x00, 0x00, 0x00,
  0x0a, 0x00, 0x00, 0x00, 0x1c, 0x00, 0x00, 0x00, 0x38, 0x00, 0x00, 0x00,
  0x04, 0x00, 0x00, 0x00, 0x10, 0x00, 0x00, 0x00, 0x04, 0x00, 0x00, 0x00,
  0x01, 0x00, 0x00, 0x00, 0x08, 0x00, 0x00, 0x00, 0x1a, 0x00, 0x00, 0x00,
  0x73, 0x65, 0x71, 0x75, 0x65, 0x6e, 0x74, 0x69, 0x61, 0x6c, 0x2f, 0x63,
  0x6f, 0x6e, 0x76, 0x32, 0x64, 0x5f, 0x31, 0x2f, 0x43, 0x6f, 0x6e, 0x76,
  0x32, 0x44, 0x00, 0x00, 0x9c, 0xdd, 0xff, 0xff, 0xa6, 0xde, 0xff, 0xff,
  0x04, 0x00, 0x00, 0x00, 0x80, 0x01, 0x00, 0x00, 0x23, 0x87, 0x66, 0x3d,
  0x3c, 0xf6, 0xa6, 0x3d, 0x47, 0x41, 0x4b, 0xbe, 0x0c, 0x9f, 0xc4, 0xbc,
  0xda, 0x26, 0x4e, 0x3e, 0x64, 0x01, 0x0f, 0xbe, 0xed, 0xec, 0x25, 0x3d,
  0x3e, 0x73, 0x9e, 0xbd, 0x11, 0xee, 0x99, 0xbd, 0x0d, 0x84, 0x39, 0x3e,
  0x49, 0xb5, 0x2c, 0xbe, 0xe7, 0xd3, 0xf4, 0x3d, 0xab, 0x54, 0x90, 0x3e,
  0xd3, 0xed, 0x8b, 0x3e, 0xfc, 0x25, 0x13, 0x3e, 0x20, 0xdf, 0x9f, 0xbd,
  0x4e, 0xc8, 0x16, 0xbd, 0x31, 0x21, 0x8b, 0xbe, 0xf7, 0xbb, 0xc6, 0xbd,
  0x50, 0xbc, 0x7a, 0xbe, 0xcd, 0xc8, 0x85, 0x3d, 0x89, 0x97, 0x12, 0xbe,
  0x70, 0x53, 0xad, 0xbd, 0x1b, 0x3b, 0x46, 0x3d, 0x5c, 0x7a, 0x3e, 0x3e,
  0xfc, 0xdf, 0xc2, 0x3e, 0x1f, 0xa5, 0x1e, 0x3e, 0x25, 0x6a, 0x77, 0xbd,
  0x74, 0xe1, 0x18, 0xbd, 0x4c, 0xd8, 0xb3, 0x3e, 0x55, 0xd6, 0x04, 0xbc,
  0xff, 0x4c, 0x85, 0xbe, 0x98, 0xd4, 0xa8, 0xbe, 0x85, 0xec, 0x14, 0xbd,
  0x79, 0xd1, 0xb7, 0xbd, 0x0c, 0x14, 0x7a, 0xbe, 0xda, 0x3a, 0xac, 0xbd,
  0xae, 0xfe, 0x99, 0xbc, 0x93, 0xfe, 0xc9, 0xbd, 0x17, 0x66, 0x91, 0xbd,
  0x94, 0x99, 0x13, 0x3d, 0x43, 0x6f, 0xbb, 0xbc, 0x4e, 0x43, 0xa3, 0xbd,
  0x5d, 0xa6, 0x01, 0x3e, 0xe0, 0x04, 0x88, 0xbd, 0x64, 0x4e, 0x29, 0x3d,
  0x26, 0x05, 0x9b, 0x3d, 0x20, 0x9a, 0x03, 0xbe, 0xaa, 0xda, 0x95, 0xba,
  0x44, 0x15, 0x56, 0xbd, 0xbe, 0x15, 0xb3, 0xbc, 0x50, 0x69, 0x96, 0xbe,
  0x2b, 0x42, 0xae, 0xbe, 0x0b, 0xd0, 0x04, 0xbf, 0xf5, 0xec, 0x8f, 0x3e,
  0xf1, 0xc0, 0x6e, 0x3e, 0x0d, 0x04, 0xa3, 0x3e, 0xfc, 0x94, 0x09, 0x3d,
  0xb9, 0xfb, 0x12, 0x3e, 0xb3, 0xa2, 0x6f, 0x3e, 0x24, 0x31, 0x8e, 0xbe,
  0x41, 0x4c, 0xdc, 0x3c, 0xc8, 0x51, 0x6a, 0x3b, 0xab, 0x94, 0x87, 0xbe,
  0xc4, 0xae, 0x07, 0x3e, 0x0b, 0xb0, 0x9c, 0xbd, 0xc5, 0x8c, 0x1f, 0x3e,
  0x74, 0x0f, 0xfd, 0xbc, 0x8f, 0x89, 0x02, 0xbd, 0x91, 0x2c, 0xcc, 0x3e,
  0x62, 0xfa, 0x9f, 0xbd, 0xad, 0xaf, 0x2c, 0x3e, 0xd8, 0x42, 0x90, 0x3d,
  0x16, 0x63, 0x22, 0xbe, 0xf9, 0xec, 0x4f, 0x3d, 0x85, 0xf0, 0x4d, 0x3e,
  0x11, 0xe0, 0x66, 0xba, 0xe5, 0xb2, 0x91, 0xbe, 0x82, 0xc4, 0xbe, 0xbe,
  0x48, 0xc1, 0x18, 0x3e, 0x23, 0x73, 0xc0, 0xbd, 0x1f, 0x26, 0x9e, 0x3e,
  0xb9, 0x3a, 0x11, 0x3e, 0x30, 0x2e, 0x9a, 0x3e, 0x3c, 0x89, 0x8c, 0x3d,
  0xe2, 0x7d, 0x63, 0xbe, 0xe5, 0xe5, 0x45, 0x3d, 0x37, 0x96, 0x04, 0xbd,
  0xe6, 0x46, 0xd9, 0xbd, 0x61, 0x16, 0x6d, 0x3e, 0x20, 0xb5, 0x3d, 0xbe,
  0x65, 0x2f, 0xe2, 0x3d, 0xcd, 0x29, 0xc7, 0xbd, 0xce, 0x9b, 0x7c, 0xbd,
  0xb8, 0xfd, 0x2c, 0x3c, 0xa0, 0x74, 0xdb, 0x3c, 0xfe, 0xdf, 0xff, 0xff,
  0x10, 0x00, 0x00, 0x00, 0x09, 0x00, 0x00, 0x00, 0x1c, 0x00, 0x00, 0x00,
  0x38, 0x00, 0x00, 0x00, 0x04, 0x00, 0x00, 0x00, 0x08, 0x00, 0x00, 0x00,
  0x04, 0x00, 0x00, 0x00, 0x03, 0x00, 0x00, 0x00, 0x01, 0x00, 0x00, 0x00,
  0x18, 0x00, 0x00, 0x00, 0x73, 0x65, 0x71, 0x75, 0x65, 0x6e, 0x74, 0x69,
  0x61, 0x6c, 0x2f, 0x63, 0x6f, 0x6e, 0x76, 0x32, 0x64, 0x2f, 0x43, 0x6f,
  0x6e, 0x76, 0x32, 0x44, 0x00, 0x00, 0x00, 0x00, 0x74, 0xdf, 0xff, 0xff,
  0x7e, 0xe0, 0xff, 0xff, 0x04, 0x00, 0x00, 0x00, 0xc0, 0x00, 0x00, 0x00,
  0x48, 0x32, 0xaf, 0xbd, 0xa2, 0x1c, 0x13, 0xbe, 0x53, 0xc0, 0xcb, 0xbd,
  0x1b, 0x61, 0x03, 0xbe, 0x31, 0xd5, 0xd0, 0x3e, 0x2f, 0xae, 0x8c, 0x3e,
  0x86, 0xec, 0xfe, 0x3e, 0xb7, 0x18, 0xb8, 0x3e, 0xc8, 0x6c, 0x84, 0xbe,
  0xe7, 0xf2, 0x77, 0x3e, 0x00, 0x2e, 0x8c, 0x3e, 0x72, 0x16, 0x54, 0xbe,
  0x08, 0x4f, 0x69, 0x3e, 0xde, 0xca, 0xfe, 0x3e, 0xcd, 0x8e, 0xc0, 0xbe,
  0x3f, 0x55, 0xf6, 0x3d, 0x0c, 0x7f, 0x1f, 0xbd, 0xcc, 0xc2, 0xe8, 0xbc,
  0x98, 0x64, 0x05, 0xbe, 0x88, 0x67, 0x9d, 0xbd, 0x6a, 0xca, 0x42, 0xbe,
  0x64, 0x5e, 0x80, 0x3e, 0xa6, 0x8f, 0x85, 0xbe, 0xce, 0xcc, 0x61, 0x3e,
  0xf1, 0x01, 0x80, 0xbe, 0xff, 0xd7, 0x96, 0x3e, 0x4f, 0xbe, 0x55, 0x3e,
  0x1e, 0xcd, 0x3b, 0xbe, 0x96, 0x52, 0x97, 0x3e, 0xbb, 0xef, 0x03, 0x3f,
  0x70, 0xb7, 0xdc, 0xbd, 0xc0, 0x9c, 0x80, 0x3e, 0x02, 0x30, 0xd4, 0xbd,
  0x05, 0x16, 0x64, 0xbd, 0x04, 0x03, 0x38, 0xbe, 0x03, 0xcf, 0x37, 0xbe,
  0x24, 0xd9, 0x5b, 0xbe, 0xb7, 0x62, 0x4e, 0x3e, 0x97, 0xb9, 0xe9, 0x3c,
  0xdd, 0xb9, 0x51, 0x3e, 0x79, 0x4e, 0x8d, 0xbe, 0x1d, 0x46, 0xad, 0x3e,
  0xcb, 0x56, 0x46, 0x3e, 0xb0, 0x93, 0xcb, 0xbd, 0x9c, 0x62, 0x6d, 0x3e,
  0x52, 0xc0, 0xb7, 0x3e, 0x2a, 0xa8, 0x4a, 0x3e, 0xdc, 0xb3, 0x8a, 0x3e,
  0x16, 0xe1, 0xff, 0xff, 0x10, 0x00, 0x00, 0x00, 0x08, 0x00, 0x00, 0x00,
  0x14, 0x00, 0x00, 0x00, 0x30, 0x00, 0x00, 0x00, 0x02, 0x00, 0x00, 0x00,
  0x03, 0x00, 0x00, 0x00, 0x10, 0x00, 0x00, 0x00, 0x19, 0x00, 0x00, 0x00,
  0x73, 0x65, 0x71, 0x75, 0x65, 0x6e, 0x74, 0x69, 0x61, 0x6c, 0x2f, 0x64,
  0x65, 0x6e, 0x73, 0x65, 0x5f, 0x31, 0x2f, 0x4d, 0x61, 0x74, 0x4d, 0x75,
  0x6c, 0x00, 0x00, 0x00, 0x84, 0xe0, 0xff, 0xff, 0x8e, 0xe1, 0xff, 0xff,
  0x04, 0x00, 0x00, 0x00, 0x00, 0x1c, 0x00, 0x00, 0xf5, 0x5c, 0x03, 0x3e,
  0x04, 0xc9, 0x00, 0x3d, 0x73, 0xb5, 0xb3, 0x3c, 0xb6, 0x54, 0x14, 0x3d,
  0xd4, 0xa6, 0x35, 0x3e, 0xfe, 0x55, 0x67, 0x3c, 0xb8, 0x24, 0x25, 0x3e,
  0x0f, 0x55, 0xa3, 0x3d, 0xc8, 0x65, 0x85, 0xbe, 0x2f, 0x77, 0xc9, 0x3e,
  0x0c, 0x5a, 0x41, 0xbe, 0xd4, 0x52, 0xd0, 0x3b, 0x50, 0xc2, 0x05, 0x3e,
  0x89, 0x9a, 0x33, 0xbe, 0xdb, 0xfe, 0x8f, 0xbc, 0x5b, 0x7c, 0xe1, 0x3e,
  0x17, 0x76, 0x69, 0xbd, 0x92, 0xd2, 0xea, 0x3c, 0x66, 0x71, 0x29, 0x3d,
  0x09, 0xd2, 0x07, 0x3b, 0x29, 0x2f, 0x00, 0xbd, 0xe1, 0x39, 0x80, 0xbe,
  0xa9, 0xb8, 0xc7, 0xbd, 0x01, 0x2f, 0xa0, 0x3d, 0xc2, 0x7a, 0x5e, 0x3e,
  0x00, 0x2b, 0x48, 0x3e, 0xdc, 0x0c, 0xcd, 0xbc, 0xff, 0xec, 0x8d, 0x3e,
  0xc4, 0x70, 0x80, 0x3e, 0x64, 0x78, 0x5e, 0x3d, 0xa7, 0x6c, 0x89, 0xbc,
  0xe4, 0x6d, 0x60, 0xbe, 0xcc, 0x22, 0x92, 0x3c, 0xe5, 0x7f, 0x9b, 0xbe,
  0x9e, 0xbf, 0x9a, 0xbe, 0xef, 0x09, 0xb8, 0xbd, 0x9e, 0xa6, 0x01, 0x3d,
  0xa4, 0x38, 0x3d, 0xbe, 0x6e, 0x1e, 0x22, 0xbe, 0xe8, 0x21, 0xd1, 0xbd,
  0x15, 0xa8, 0x46, 0x3e, 0xaa, 0xfd, 0x50, 0xbe, 0xc7, 0x43, 0xb8, 0xbe,
  0x5f, 0x00, 0xaf, 0xbe, 0x4e, 0x6d, 0xe6, 0xbd, 0x08, 0x24, 0x59, 0xbe,
  0xa3, 0xbb, 0xb6, 0x3e, 0x40, 0x5e, 0xd9, 0xbc, 0x80, 0x09, 0xba, 0x3c,
  0x2d, 0x1a, 0xa7, 0xbe, 0x0d, 0x72, 0x42, 0xbf, 0x2a, 0xdf, 0x88, 0xbd,
  0x2e, 0x2e, 0x76, 0xbe, 0x6e, 0xf0, 0x90, 0xbe, 0x26, 0x38, 0x69, 0xbd,
  0x96, 0x70, 0xa0, 0xbe, 0x37, 0x0f, 0x5d, 0x3d, 0x3c, 0xa2, 0x94, 0xbd,
  0x1b, 0xfd, 0xeb, 0xbe, 0x59, 0xa0, 0xbb, 0xbe, 0xfd, 0xdc, 0xe0, 0xbe,
  0x1c, 0xd6, 0x90, 0xbc, 0x9d, 0xf3, 0x11, 0xbf, 0x86, 0x85, 0xaa, 0xbe,
  0xb6, 0xc3, 0xfd, 0xbd, 0x05, 0xb3, 0x67, 0xbe, 0xa2, 0x99, 0x0b, 0xbf,
  0xf7, 0xe8, 0xb1, 0xbd, 0x70, 0xb2, 0x62, 0xbe, 0x07, 0xb5, 0x41, 0xbe,
  0xaf, 0xc9, 0x98, 0xbd, 0x6b, 0x67, 0x4b, 0xbe, 0x64, 0x29, 0x2a, 0xbe,
  0x7d, 0x54, 0x67, 0xbe, 0x26, 0x31, 0x2e, 0xbe, 0xba, 0x70, 0x57, 0xbe,
  0xd7, 0x32, 0x04, 0xbe, 0x06, 0x12, 0x95, 0x3d, 0x71, 0x58, 0xeb, 0xbd,
  0xc0, 0x7c, 0xb2, 0xbd, 0x05, 0x21, 0x32, 0xbe, 0x77, 0xec, 0x59, 0xbe,
  0xe0, 0x73, 0xe0, 0xbe, 0x03, 0x8e, 0xdc, 0xbd, 0x7d, 0x81, 0x6f, 0xbe,
  0x18, 0x33, 0xd4, 0x3d, 0xf1, 0xdc, 0x89, 0xbe, 0x7d, 0xec, 0xfa, 0xbe,
  0xe6, 0x2e, 0xf3, 0x3c, 0xce, 0x48, 0xb3, 0xbe, 0xc1, 0xd7, 0xaa, 0xbe,
  0xae, 0xbd, 0x99, 0xbe, 0xc0, 0xb7, 0x10, 0xbf, 0xc4, 0xf9, 0x68, 0xbe,
  0x7a, 0x34, 0xa8, 0xbe, 0xbc, 0xeb, 0x0d, 0xbe, 0x36, 0xbf, 0x00, 0x3e,
  0x05, 0x0c, 0x21, 0xbd, 0xe5, 0xdf, 0x94, 0x3e, 0x67, 0xa7, 0xeb, 0xbc,
  0xc5, 0xcb, 0x46, 0xbd, 0xdc, 0xa3, 0xce, 0x3e, 0xbc, 0x9e, 0x12, 0x3e,
  0xed, 0x83, 0xb9, 0x3d, 0x72, 0x00, 0x98, 0xbe, 0x7c, 0x94, 0xa8, 0x3e,
  0xcc, 0x71, 0x01, 0xbd, 0x94, 0xcd, 0x3b, 0xbe, 0x48, 0x76, 0x8e, 0x3d,
  0xb8, 0xbd, 0xce, 0xbc, 0xdb, 0x53, 0x6e, 0x3d, 0x75, 0x58, 0x3c, 0x3e,
  0xe0, 0xba, 0x0d, 0xbe, 0x44, 0xf0, 0x94, 0xbd, 0x42, 0x5b, 0x0d, 0xbe,
  0xf7, 0xc2, 0xd2, 0xbe, 0x6f, 0x5e, 0x0a, 0xbe, 0xf7, 0x20, 0x8e, 0x3e,
  0xb5, 0x72, 0xde, 0xbd, 0xf7, 0x3c, 0xce, 0xbd, 0x4d, 0xd7, 0x08, 0x3d,
  0x76, 0xac, 0x95, 0x3d, 0x7c, 0x2b, 0x05, 0xbe, 0xbc, 0xc1, 0x81, 0xbd,
  0x84, 0xaf, 0x37, 0x3e, 0x57, 0x01, 0xc6, 0x3d, 0xc9, 0xe7, 0x27, 0xbe,
  0x37, 0x49, 0x29, 0x3e, 0x59, 0x18, 0xe7, 0xbd, 0x22, 0xc7, 0xaf, 0xbe,
  0xad, 0x28, 0x8a, 0xbc, 0xd0, 0x05, 0x15, 0xbe, 0x3f, 0xa6, 0x82, 0x3d,
  0x10, 0xde, 0x80, 0xbb, 0x77, 0xd2, 0x5b, 0xbe, 0x43, 0x43, 0xc3, 0x3d,
  0x53, 0x83, 0x4a, 0x3d, 0xb7, 0xa9, 0xa9, 0xbd, 0x73, 0xdc, 0x0a, 0xbe,
  0x2c, 0x34, 0xb2, 0x3d, 0x5c, 0x0e, 0x22, 0x3e, 0x49, 0x67, 0xd9, 0xbc,
  0xa4, 0x2e, 0xd4, 0xbd, 0x5a, 0xe6, 0x91, 0x3d, 0xc9, 0x0e, 0xe2, 0x3d,
  0x8a, 0xc2, 0x7a, 0xbe, 0x3f, 0xa7, 0x9f, 0xbe, 0xe8, 0x5f, 0x9d, 0x3d,
  0xa3, 0x25, 0x35, 0x3c, 0x34, 0xa9, 0x0c, 0xbe, 0x80, 0x05, 0x20, 0x3d,
  0x96, 0x33, 0x05, 0xbe, 0xd2, 0x2c, 0x1b, 0x3e, 0xa2, 0xa0, 0x29, 0xbe,
  0xb6, 0x52, 0xcf, 0xbd, 0x4a, 0xb7, 0xab, 0x3c, 0xbc, 0xce, 0x0c, 0x3e,
  0xd2, 0x9b, 0x34, 0xbe, 0x8b, 0x26, 0x22, 0xbd, 0x3a, 0x2c, 0xf4, 0x3b,
  0x41, 0x1d, 0x2b, 0x3e, 0x12, 0x56, 0x07, 0x3e, 0xd1, 0x22, 0x3a, 0xbc,
  0x95, 0x2d, 0x51, 0xbc, 0x0d, 0x25, 0xf8, 0x3d, 0xb4, 0xed, 0x4f, 0xbd,
  0x1d, 0xeb, 0x13, 0x3d, 0x94, 0xf2, 0x46, 0xbe, 0xaa, 0xc1, 0x28, 0x3e,
  0x98, 0x6c, 0x84, 0x3e, 0xc6, 0x97, 0xbc, 0x3d, 0x1c, 0x21, 0xb2, 0xbe,
  0xa8, 0x4c, 0xb8, 0x3d, 0xb1, 0xe3, 0x38, 0x3d, 0x5a, 0x3b, 0x18, 0x3d,
  0x18, 0x35, 0x76, 0x3d, 0x99, 0xff, 0x6b, 0x3e, 0x58, 0xa9, 0x80, 0xbe,
  0x49, 0x29, 0xcc, 0xbd, 0xce, 0xad, 0x61, 0x3d, 0x81, 0xfe, 0x2d, 0x3e,
  0xac, 0x22, 0x2c, 0x3e, 0xfc, 0x39, 0x66, 0xbd, 0x35, 0x28, 0x79, 0x3e,
  0xb3, 0xb1, 0x01, 0xbe, 0xd5, 0xb2, 0x77, 0xbd, 0xc9, 0x30, 0x59, 0xbe,
  0xe9, 0xeb, 0x18, 0x3e, 0x3d, 0x31, 0x5d, 0x3d, 0xbb, 0x60, 0x18, 0xbe,
  0x3e, 0xd3, 0x9d, 0xbe, 0xbb, 0xcd, 0x9f, 0xbd, 0x64, 0x45, 0x88, 0xbd,
  0xec, 0x14, 0x98, 0xbd, 0x29, 0xda, 0xe4, 0x3d, 0xbb, 0xbd, 0x92, 0xbe,
  0x7a, 0xd1, 0x25, 0x3e, 0x52, 0xf1, 0x92, 0xb8, 0x68, 0xd2, 0x21, 0x3e,
  0xb8, 0xce, 0xb7, 0x3d, 0x00, 0xd6, 0xfc, 0xbd, 0x4d, 0xc4, 0xb8, 0x3e,
  0xcd, 0x8d, 0xf3, 0xbd, 0x38, 0x38, 0xc5, 0xbd, 0xd6, 0x66, 0xee, 0x3d,
  0x44, 0x54, 0x68, 0xbe, 0x1c, 0xa9, 0x16, 0xbe, 0x9e, 0xf9, 0x52, 0xbd,
  0x67, 0x8d, 0x74, 0xbe, 0xb7, 0xfd, 0xfa, 0xbd, 0xf3, 0x1f, 0x98, 0x3d,
  0xac, 0x67, 0x9e, 0xbe, 0x25, 0x0f, 0x20, 0x3e, 0x8f, 0x80, 0x12, 0x3e,
  0x0a, 0x5f, 0x89, 0x3d, 0x7e, 0xaf, 0x88, 0xbd, 0xf6, 0x13, 0x64, 0x3d,
  0x22, 0xe3, 0x74, 0x3d, 0xb4, 0xc8, 0x42, 0xbe, 0xfa, 0x8a, 0x29, 0x3e,
  0x2f, 0x10, 0x79, 0xbd, 0x02, 0x69, 0x51, 0xbe, 0x7f, 0x00, 0x1d, 0xbe,
  0x05, 0x95, 0xb3, 0x3c, 0xfd, 0x4a, 0xdb, 0xbe, 0xbd, 0x63, 0xce, 0x3d,
  0x21, 0x11, 0x8c, 0x3d, 0x50, 0xf0, 0xfb, 0xbc, 0x52, 0x81, 0x5d, 0xbe,
  0xdc, 0x80, 0x0d, 0x3c, 0x70, 0x54, 0x7d, 0xbe, 0xe5, 0xd0, 0xce, 0xbd,
  0x4a, 0x11, 0x5b, 0x3e, 0xe4, 0xd6, 0x10, 0xbe, 0x3e, 0x0c, 0x52, 0x3e,
  0xff, 0xf7, 0xd3, 0x3d, 0x26, 0x12, 0x83, 0xbe, 0xb1, 0x49, 0xc2, 0x3f,
  0xf7, 0x11, 0x70, 0x3e, 0x86, 0x72, 0x75, 0x3e, 0xb1, 0xac, 0x1f, 0xbd,
  0x6f, 0x19, 0xcb, 0xbd, 0x3a, 0xc1, 0x5e, 0x3e, 0x84, 0x35, 0xaa, 0xbd,
  0x51, 0x87, 0xf0, 0x3d, 0xfc, 0xd9, 0xf6, 0x3e, 0xad, 0xc1, 0x7a, 0xbe,
  0xd3, 0xf1, 0xb5, 0x3e, 0x0a, 0xfc, 0x84, 0xbd, 0xc9, 0x83, 0x43, 0xbd,
  0x0e, 0x2a, 0x44, 0x3e, 0xe9, 0x7c, 0x88, 0xbe, 0x94, 0xc6, 0x9e, 0xbe,
  0xbc, 0xb8, 0xc9, 0x3f, 0x5c, 0x6a, 0x42, 0x3d, 0x7e, 0x3e, 0x90, 0x3c,
  0xc8, 0x28, 0x00, 0x3d, 0x21, 0xfb, 0x87, 0x3d, 0x9f, 0x9d, 0xa2, 0x3e,
  0x6b, 0x09, 0xb9, 0xbc, 0x28, 0x2b, 0xe4, 0xbc, 0x2c, 0x78, 0xd0, 0x3d,
  0xbe, 0x67, 0x0c, 0xbe, 0xa3, 0xee, 0x66, 0x3e, 0x07, 0xea, 0x21, 0x3d,
  0x15, 0x7f, 0x02, 0x3d, 0xa6, 0xd7, 0x90, 0x3e, 0x27, 0x69, 0x42, 0x3e,
  0x6e, 0x46, 0x2f, 0xbe, 0x70, 0x5f, 0xdd, 0x3f, 0xa9, 0x36, 0x46, 0xbe,
  0xb0, 0xdc, 0x18, 0xbe, 0x07, 0x87, 0x98, 0xbe, 0xb1, 0xb2, 0x12, 0xbd,
  0x2e, 0x8e, 0x79, 0x3e, 0x24, 0xc6, 0x57, 0xbc, 0xab, 0xfd, 0x1a, 0x3e,
  0xf5, 0x8a, 0xa5, 0xbd, 0xbc, 0x98, 0x0f, 0xbf, 0xf8, 0xc1, 0xf5, 0x3d,
  0x0d, 0x07, 0xe5, 0x3d, 0xfa, 0xec, 0x2c, 0x3c, 0x9f, 0xbd, 0x47, 0x3e,
  0x39, 0x60, 0x71, 0x3e, 0xd4, 0x4d, 0x9d, 0xbd, 0x3f, 0xbe, 0xef, 0x3f,
  0xb7, 0xa6, 0xf3, 0x3d, 0x7a, 0x15, 0x4d, 0xbe, 0xba, 0x2c, 0xee, 0xbe,
  0x79, 0x4e, 0x80, 0xbd, 0x51, 0xc1, 0x6e, 0x3e, 0x80, 0xcf, 0xa2, 0x3d,
  0x97, 0x46, 0x44, 0x3e, 0x44, 0x2b, 0xec, 0xbb, 0xac, 0x76, 0x0f, 0xbf,
  0xbc, 0xcb, 0x8f, 0xbe, 0xd1, 0x3e, 0x5c, 0xbe, 0xe5, 0xbb, 0x9d, 0xbe,
  0xac, 0xab, 0x9f, 0x3b, 0x7c, 0xd2, 0xbf, 0x3d, 0x27, 0x76, 0xa1, 0x3c,
  0x09, 0xfa, 0xbe, 0x3f, 0x43, 0x10, 0x52, 0x3e, 0xa9, 0xeb, 0x00, 0xbd,
  0xfa, 0xbc, 0xbd, 0xbe, 0x33, 0x52, 0x06, 0x3e, 0xdd, 0xdf, 0x1d, 0x3e,
  0x15, 0xac, 0x70, 0x3d, 0x63, 0x22, 0x79, 0x3d, 0x46, 0xf6, 0x04, 0x3e,
  0x6b, 0x7d, 0xeb, 0xbe, 0x37, 0xc1, 0xdb, 0xbd, 0x5c, 0xd7, 0xc6, 0x3b,
  0x23, 0x74, 0x92, 0xbe, 0x1f, 0xd6, 0x3d, 0x3e, 0x27, 0x19, 0x96, 0x3e,
  0xcf, 0x3d, 0xad, 0xbe, 0x5d, 0x99, 0xb1, 0x3f, 0xb9, 0xd1, 0x57, 0x3e,
  0xbe, 0x54, 0xce, 0xbc, 0xaf, 0x68, 0xf3, 0xbd, 0x46, 0x0f, 0x80, 0xbc,
  0x1d, 0x52, 0x24, 0x3e, 0xb2, 0x0b, 0x5d, 0xbd, 0xb2, 0xf1, 0x73, 0x3d,
  0xfb, 0x94, 0x05, 0xbf, 0xc1, 0xe7, 0x51, 0xbe, 0x87, 0xb1, 0xf1, 0xbd,
  0x5e, 0xb1, 0x12, 0xbd, 0x0d, 0x84, 0x96, 0xbd, 0x66, 0x1c, 0x3c, 0x3d,
  0xbc, 0x34, 0x94, 0x3b, 0x14, 0x36, 0x80, 0xbe, 0x96, 0x03, 0xf4, 0x3f,
  0x61, 0x2b, 0x8b, 0x3d, 0xad, 0x37, 0x11, 0x3e, 0x1a, 0x88, 0xd7, 0x3c,
  0x13, 0x9f, 0x2d, 0x3c, 0xc9, 0xae, 0x81, 0x3d, 0x70, 0xfd, 0x63, 0xbb,
  0xbb, 0x5a, 0x01, 0x3e, 0x21, 0x4c, 0x23, 0xbd, 0x14, 0xcc, 0x2b, 0x3e,
  0x94, 0x6b, 0x34, 0x3e, 0x65, 0xfd, 0x40, 0x3e, 0x5f, 0x60, 0x97, 0x3e,
  0xfa, 0x0b, 0x08, 0xbd, 0x68, 0x72, 0xfc, 0xbc, 0xb2, 0xb1, 0xf9, 0x3d,
  0xe0, 0x74, 0x26, 0xbe, 0x5b, 0xd5, 0x46, 0xbd, 0x63, 0x89, 0x0e, 0x3f,
  0xe8, 0x6a, 0x03, 0xbd, 0x03, 0x23, 0x28, 0xbd, 0x78, 0x1d, 0xcd, 0xbd,
  0x4e, 0x5e, 0x88, 0xbd, 0xcf, 0xff, 0x26, 0x3d, 0x18, 0x21, 0xba, 0xbe,
  0x7f, 0xed, 0x36, 0xbe, 0x79, 0x4c, 0x1c, 0xbe, 0xa6, 0x39, 0xde, 0x3d,
  0x63, 0x44, 0x79, 0x3c, 0x75, 0x5d, 0x8a, 0xbb, 0xff, 0x3b, 0x66, 0x3e,
  0xc7, 0x00, 0x9f, 0x3e, 0xbc, 0x6b, 0xfb, 0xbc, 0xd8, 0x52, 0x25, 0xbd,
  0x74, 0x71, 0x6a, 0xbe, 0xb9, 0x4b, 0x48, 0xbd, 0x1d, 0x4c, 0xf8, 0xbe,
  0x39, 0xea, 0x90, 0xbe, 0xcb, 0x30, 0x72, 0xbd, 0x5c, 0xd0, 0xdc, 0x3d,
  0x80, 0x92, 0x1e, 0xbe, 0xeb, 0xa4, 0xe2, 0xbd, 0xbd, 0xae, 0x8d, 0xbe,
  0x0d, 0xa9, 0x2c, 0xbe, 0xcb, 0xd7, 0xaf, 0xbe, 0xf7, 0x4b, 0x0b, 0xbf,
  0xcf, 0x48, 0xf3, 0xbe, 0x2a, 0x2b, 0x88, 0xbe, 0xf0, 0xed, 0x38, 0x3d,
  0xbe, 0xef, 0x93, 0x3d, 0x5a, 0x81, 0x23, 0xbe, 0xa1, 0xf2, 0x0c, 0xbd,
  0x22, 0x00, 0x0c, 0xbf, 0xe4, 0x30, 0x6a, 0xbf, 0x1b, 0x47, 0xb7, 0xbd,
  0xec, 0xf6, 0xc2, 0xbc, 0xed, 0xe5, 0x86, 0xbd, 0xef, 0x96, 0xe3, 0xbd,
  0x51, 0x96, 0x1e, 0x3d, 0xd3, 0x6e, 0x38, 0x3e, 0x7b, 0x65, 0xac, 0xbe,
  0x0f, 0x3d, 0xbc, 0xbe, 0xbd, 0x1e, 0x1e, 0xbe, 0x4b, 0x95, 0x7a, 0xbe,
  0xc7, 0xc0, 0xfb, 0x3c, 0x97, 0x58, 0x09, 0xbf, 0x45, 0x17, 0x9d, 0xbc,
  0x55, 0x07, 0x37, 0x3d, 0x57, 0xa0, 0x46, 0xbe, 0x39, 0x08, 0xcd, 0xbd,
  0x1b, 0xbd, 0x81, 0xbc, 0x35, 0x44, 0x1c, 0xbe, 0x80, 0x08, 0xa5, 0x3e,
  0x25, 0x5e, 0x83, 0xbd, 0xaa, 0xd0, 0x45, 0x3e, 0x00, 0xb9, 0x87, 0xbd,
  0x3d, 0x67, 0x24, 0x3e, 0x0f, 0x34, 0x69, 0xbe, 0x7d, 0xbd, 0x31, 0x3d,
  0x4d, 0x29, 0xc2, 0xbe, 0x53, 0x25, 0xde, 0x3c, 0x37, 0x77, 0x97, 0xbe,
  0x7b, 0x64, 0x55, 0xba, 0x60, 0x22, 0x70, 0x3d, 0x5e, 0x02, 0x64, 0xbd,
  0x30, 0x36, 0x93, 0x3d, 0xcb, 0x8d, 0xed, 0x3c, 0x1f, 0xc4, 0x20, 0xbe,
  0xeb, 0x2c, 0x84, 0x3d, 0x36, 0xb1, 0x04, 0x3e, 0x44, 0xeb, 0x7d, 0x3e,
  0x7e, 0x99, 0x02, 0x3e, 0x2c, 0xb8, 0x9a, 0x3e, 0xd3, 0xaf, 0xbe, 0xbe,
  0xe8, 0x91, 0xae, 0x3b, 0xe3, 0x07, 0xaf, 0x3e, 0x9c, 0x13, 0x21, 0xbe,
  0xff, 0x63, 0x4e, 0xbe, 0xfd, 0x03, 0x60, 0xbe, 0x6e, 0x23, 0x0b, 0x3e,
  0xd1, 0x8f, 0x69, 0xbd, 0xf5, 0x33, 0x25, 0xbd, 0x7e, 0xbf, 0x32, 0xbc,
  0x26, 0x69, 0x0b, 0xbe, 0x63, 0x58, 0x61, 0x3d, 0x6b, 0x84, 0xec, 0xbd,
  0x82, 0xd4, 0xec, 0x3b, 0x9c, 0x54, 0x7c, 0xbe, 0x56, 0xf6, 0xa5, 0x3e,
  0x8d, 0xdc, 0x37, 0xbd, 0x33, 0x7a, 0x17, 0x3d, 0x99, 0xca, 0xce, 0x3d,
  0x30, 0x51, 0x0b, 0x3e, 0x2f, 0xef, 0xde, 0xbc, 0x9a, 0x61, 0x7c, 0xbe,
  0xc3, 0x27, 0xb4, 0x39, 0xb1, 0xb1, 0x89, 0xbe, 0xae, 0xa0, 0x59, 0xbe,
  0x27, 0xb3, 0x03, 0xbe, 0x89, 0xf5, 0xf2, 0xbd, 0xa3, 0x83, 0xce, 0xbd,
  0x75, 0xcc, 0xea, 0xbd, 0xc8, 0xcb, 0xb1, 0xbd, 0xf8, 0x46, 0xf5, 0x3d,
  0xa8, 0x01, 0xcf, 0x3d, 0x8f, 0xf0, 0x89, 0xbe, 0x66, 0xa8, 0x80, 0xbe,
  0xac, 0x7c, 0x2b, 0xbd, 0x6e, 0xaa, 0xba, 0x3f, 0xc6, 0xce, 0x5a, 0xbd,
  0x34, 0x4b, 0x94, 0x3d, 0x93, 0x9f, 0x14, 0x3e, 0x2d, 0x4c, 0x4f, 0x3d,
  0x6c, 0xaa, 0x84, 0xbe, 0x9b, 0x2f, 0x41, 0xbe, 0xa0, 0xb3, 0x48, 0x3d,
  0x46, 0x27, 0x9e, 0x3d, 0xb7, 0x54, 0x52, 0x3d, 0x26, 0xa0, 0x0f, 0xbd,
  0x60, 0xf2, 0xe0, 0x3d, 0xa6, 0xbb, 0x09, 0xbe, 0x29, 0x93, 0x94, 0x3a,
  0xbd, 0x61, 0xcd, 0x3d, 0xe0, 0xc4, 0x7e, 0x3c, 0x69, 0x54, 0xc2, 0x3f,
  0xbe, 0x9e, 0x04, 0xbe, 0x3c, 0xb0, 0x79, 0xbc, 0x99, 0x16, 0x25, 0xbe,
  0x7b, 0xca, 0x15, 0xbd, 0x1b, 0x0d, 0x29, 0xbd, 0x4b, 0xf1, 0x9c, 0xbe,
  0xd2, 0xf7, 0xf4, 0xbc, 0x00, 0x38, 0x85, 0x3d, 0x9f, 0x71, 0x3f, 0xbe,
  0x30, 0xb8, 0x73, 0x3c, 0x5a, 0x90, 0x27, 0x3e, 0x00, 0x9a, 0xe7, 0x3d,
  0x4b, 0x5e, 0x36, 0xbe, 0xee, 0x1e, 0xfb, 0xbd, 0x42, 0xc8, 0x4c, 0x3e,
  0xbe, 0x03, 0xbf, 0x3f, 0x76, 0x41, 0x6b, 0x3d, 0xca, 0xed, 0x4d, 0xbe,
  0xdf, 0x9c, 0xfc, 0x3d, 0x9e, 0x0a, 0x29, 0xbe, 0xfd, 0x03, 0x69, 0xbd,
  0x34, 0x6a, 0x0e, 0xbe, 0x14, 0xdf, 0xfe, 0x3d, 0xaf, 0x57, 0x38, 0x3e,
  0x8e, 0x21, 0x80, 0xbe, 0xca, 0x88, 0xc4, 0x3d, 0x8d, 0xa7, 0x50, 0xbe,
  0x80, 0x15, 0x3c, 0xbd, 0x7b, 0x2f, 0x11, 0xbe, 0xeb, 0x04, 0xd1, 0xbd,
  0x95, 0x80, 0x63, 0xbe, 0x72, 0x97, 0xb5, 0x3f, 0x6a, 0xb5, 0xf8, 0xbd,
  0xbc, 0xd9, 0x02, 0x3e, 0x97, 0x12, 0x15, 0x3d, 0x2d, 0xc1, 0x51, 0xbd,
  0x6c, 0x51, 0xbc, 0xbd, 0x08, 0x03, 0x88, 0xbe, 0x6c, 0xbd, 0x44, 0xbe,
  0x25, 0x79, 0x00, 0x3e, 0x18, 0x0a, 0x77, 0xbe, 0xb5, 0x33, 0x4a, 0xbe,
  0x12, 0x03, 0x2f, 0xbe, 0x01, 0x0e, 0x4b, 0x3d, 0x7b, 0xb9, 0xa8, 0xbd,
  0x99, 0xbe, 0x4e, 0xbe, 0x82, 0x2c, 0x3c, 0x3e, 0x81, 0x95, 0xbf, 0x3f,
  0x50, 0xa6, 0x39, 0x3d, 0x65, 0xf4, 0x82, 0xbe, 0x1b, 0x46, 0x60, 0xbe,
  0x18, 0x5e, 0x60, 0xbe, 0x0e, 0xa2, 0x7e, 0xbd, 0x82, 0x29, 0x8f, 0xbe,
  0x0c, 0x20, 0x84, 0xbd, 0xdd, 0xb5, 0xf2, 0xbd, 0x2c, 0xed, 0x15, 0xbe,
  0x8b, 0x9c, 0xc8, 0xbd, 0x87, 0x18, 0x7a, 0x3d, 0x2a, 0xac, 0x87, 0xbb,
  0xcd, 0xf1, 0xc2, 0xbd, 0x00, 0x90, 0x42, 0x3d, 0xea, 0x6e, 0x89, 0x3d,
  0xff, 0x86, 0x94, 0x3f, 0x70, 0xbc, 0xdb, 0x3d, 0xb8, 0x4e, 0x5e, 0xbe,
  0x0f, 0x96, 0xd7, 0xbd, 0xbd, 0x48, 0x15, 0xbd, 0x9b, 0x63, 0x0b, 0x3c,
  0x0e, 0x33, 0x04, 0xbe, 0xcc, 0x98, 0x78, 0xbe, 0x8b, 0x1f, 0x16, 0xbe,
  0x13, 0x78, 0xcd, 0xbb, 0xc4, 0x39, 0x2e, 0x3d, 0x0d, 0xa8, 0xa9, 0xbc,
  0x5b, 0x96, 0x9d, 0xbd, 0x96, 0xbe, 0x23, 0xbe, 0xbc, 0xdc, 0xc9, 0xbd,
  0x8a, 0xf1, 0x99, 0x3d, 0x01, 0x53, 0x8a, 0x3f, 0x03, 0xc4, 0x67, 0xbe,
  0x78, 0x09, 0x3a, 0xbd, 0x7e, 0x09, 0x3c, 0xbe, 0xce, 0x17, 0xc4, 0xbd,
  0x50, 0x2b, 0x90, 0x3d, 0x3b, 0x68, 0xd7, 0xbc, 0x02, 0xac, 0x5a, 0xbe,
  0xf4, 0xc1, 0x1a, 0xbf, 0xcf, 0x3a, 0x21, 0xbe, 0xab, 0xbb, 0xb5, 0xbd,
  0xbf, 0x98, 0x50, 0xbe, 0xb8, 0x4a, 0xc7, 0xbc, 0x03, 0x13, 0x09, 0x3e,
  0x62, 0x32, 0x1d, 0x3d, 0xb8, 0x48, 0x16, 0xbe, 0x34, 0x98, 0xb7, 0x3f,
  0x54, 0xc4, 0xb3, 0xbc, 0xd9, 0xca, 0x5b, 0xbe, 0x08, 0x57, 0x79, 0xbe,
  0x3d, 0xf1, 0x0e, 0xbd, 0x9f, 0x6a, 0xc9, 0x3d, 0xeb, 0x1c, 0x16, 0xbd,
  0xbb, 0x77, 0x01, 0xbf, 0x9e, 0xff, 0xc0, 0x3d, 0x73, 0xc8, 0x2b, 0xbe,
  0x52, 0x5f, 0x4b, 0x3e, 0x73, 0x04, 0x0f, 0x3e, 0xcc, 0xd8, 0x31, 0xbe,
  0xa8, 0x27, 0x66, 0x3e, 0xea, 0x8c, 0x2a, 0x3e, 0x85, 0xb9, 0x55, 0xbe,
  0x01, 0xde, 0xb7, 0x3f, 0xa5, 0x98, 0x6a, 0x3e, 0x0c, 0x9e, 0xba, 0xbd,
  0xd0, 0xc2, 0x20, 0x3e, 0x38, 0x25, 0x22, 0x3d, 0x7d, 0x45, 0x6b, 0x3e,
  0x6f, 0x57, 0x22, 0xbd, 0xa1, 0xe8, 0x7f, 0xbe, 0x1d, 0xa1, 0x39, 0x3e,
  0x91, 0x2b, 0x20, 0xbe, 0xa8, 0x4b, 0x00, 0x3e, 0x5e, 0x83, 0x4b, 0xbe,
  0xe3, 0x2d, 0x17, 0x3e, 0x82, 0xa3, 0x8a, 0x3e, 0x77, 0x91, 0xcc, 0xbb,
  0x94, 0x2c, 0xa8, 0x3c, 0x3c, 0x34, 0xab, 0x3f, 0x45, 0xb7, 0x08, 0x3e,
  0xb5, 0x55, 0x15, 0x3d, 0x02, 0xce, 0x04, 0xbe, 0x60, 0xb2, 0x57, 0x3d,
  0x42, 0xfa, 0x21, 0x3e, 0xf5, 0x4e, 0x94, 0xbd, 0xf6, 0xb1, 0xd6, 0xbb,
  0x79, 0xd4, 0xd9, 0x3d, 0xf9, 0xd9, 0x50, 0xbe, 0xb2, 0x7c, 0xbb, 0x3e,
  0x8b, 0x0f, 0x44, 0x3d, 0xb9, 0x3d, 0xd7, 0x3d, 0x38, 0x5c, 0x4c, 0x3d,
  0x8d, 0x01, 0x7e, 0x3d, 0x69, 0xbc, 0x60, 0xbd, 0xde, 0xc5, 0x23, 0x40,
  0x91, 0xbf, 0x9b, 0x3e, 0xaf, 0x2a, 0x03, 0xbe, 0xdc, 0x4b, 0x9e, 0xbe,
  0xb2, 0xe6, 0x1a, 0xbe, 0xa5, 0x89, 0x29, 0x3e, 0x65, 0x57, 0xbe, 0xbc,
  0xce, 0x15, 0x69, 0x3e, 0x12, 0x04, 0x08, 0xbf, 0x75, 0x7a, 0xa7, 0xbe,
  0x40, 0x9a, 0xd8, 0x3a, 0xa3, 0x32, 0x0d, 0xbe, 0x91, 0xf4, 0xbe, 0xbd,
  0xf9, 0xb4, 0x17, 0x3e, 0x3d, 0x82, 0x2f, 0x3e, 0x57, 0x19, 0x0f, 0xbd,
  0x14, 0x76, 0x9f, 0x3f, 0xa0, 0xbe, 0x09, 0x3e, 0xa1, 0x38, 0x9d, 0x3c,
  0x6f, 0x01, 0x9b, 0xbe, 0xf2, 0x20, 0x0e, 0xbc, 0xa0, 0xdc, 0x11, 0x3e,
  0xcd, 0xb7, 0x35, 0x3d, 0x90, 0xf0, 0xae, 0xba, 0x13, 0xa9, 0xdc, 0xbe,
  0x35, 0xa8, 0xa7, 0xbe, 0x66, 0x54, 0xa7, 0xbe, 0xda, 0x94, 0x91, 0x3e,
  0xaa, 0x2f, 0x13, 0xbf, 0xa5, 0xcb, 0x19, 0x3e, 0xd9, 0xe0, 0xae, 0x3e,
  0xeb, 0xaf, 0xd9, 0xbe, 0xb3, 0x30, 0xaa, 0x3f, 0xff, 0x2b, 0x4b, 0xbd,
  0x3c, 0x42, 0xd4, 0xbd, 0xf7, 0x17, 0x80, 0xbe, 0xe1, 0x0f, 0xd2, 0x3d,
  0xc4, 0x05, 0x58, 0x3e, 0x7a, 0x19, 0x74, 0x3d, 0xc9, 0xd4, 0xf3, 0x3c,
  0x67, 0xb4, 0x19, 0xbd, 0x29, 0xc7, 0x4c, 0xbe, 0x1d, 0x1d, 0xb6, 0xbd,
  0x6c, 0x01, 0x27, 0x3e, 0x83, 0x35, 0x1c, 0x3c, 0x9d, 0xac, 0xb6, 0x3c,
  0xf9, 0xd1, 0xc3, 0x3c, 0xca, 0xa4, 0xa0, 0xbe, 0x4f, 0x4f, 0x9d, 0x3f,
  0x5e, 0xe5, 0xbb, 0x3d, 0xd3, 0x33, 0xe7, 0x3d, 0xba, 0xf7, 0x59, 0xbe,
  0xd3, 0xf3, 0xdf, 0xbd, 0x7c, 0xef, 0x19, 0xbe, 0x8d, 0x24, 0x67, 0xbe,
  0xa0, 0x83, 0x32, 0xbe, 0x86, 0x5b, 0xd9, 0xbd, 0x43, 0x84, 0x8f, 0xbc,
  0xee, 0x1b, 0xaf, 0x3c, 0x53, 0x22, 0x30, 0xbc, 0xd2, 0x05, 0x7d, 0x3c,
  0xb3, 0x88, 0x1b, 0xbb, 0x44, 0x62, 0x93, 0x3c, 0x1d, 0xfb, 0xf2, 0xbd,
  0xdc, 0x6b, 0xec, 0x3f, 0x89, 0x91, 0x23, 0xbe, 0xb0, 0x5e, 0x99, 0x3d,
  0xc8, 0x69, 0xd8, 0xbc, 0x42, 0xf1, 0x79, 0x3c, 0x3e, 0x95, 0x70, 0xbe,
  0x57, 0xda, 0xbe, 0xbe, 0x00, 0xa4, 0x30, 0xbe, 0x12, 0x77, 0xa3, 0xbb,
  0xa4, 0x16, 0x86, 0xbd, 0x1c, 0x89, 0x15, 0x3e, 0x8d, 0x2a, 0x30, 0x3e,
  0x9e, 0x95, 0x12, 0x3e, 0xda, 0xa3, 0xd1, 0xbd, 0x06, 0x13, 0x0c, 0xbe,
  0x6c, 0x02, 0x25, 0xbe, 0xde, 0xd9, 0xc0, 0x3f, 0x92, 0xb4, 0x4f, 0xbe,
  0xf4, 0x56, 0xa6, 0x3d, 0x9e, 0xdd, 0xb4, 0x3d, 0x9d, 0xdb, 0x08, 0x3d,
  0xc1, 0xc0, 0x2c, 0x3d, 0x71, 0x01, 0xd9, 0xbd, 0x2a, 0xd4, 0xa2, 0xbc,
  0x76, 0x56, 0x0b, 0x3e, 0xb7, 0x0e, 0xbd, 0xbc, 0x15, 0x0e, 0x0f, 0xbd,
  0xd3, 0x5a, 0x2a, 0xbe, 0x92, 0x5a, 0x45, 0xbe, 0xb6, 0xa2, 0xfa, 0xbd,
  0x4a, 0x2c, 0x1f, 0xbe, 0x50, 0x54, 0xb8, 0x3d, 0xbd, 0xb4, 0xeb, 0x3f,
  0xc4, 0xad, 0x24, 0x3d, 0x77, 0x34, 0x16, 0x3c, 0x5a, 0xae, 0x7e, 0xbe,
  0x3f, 0x94, 0x7e, 0x3d, 0x92, 0x4d, 0xa8, 0x3c, 0xe6, 0xa2, 0xa6, 0xbd,
  0xd6, 0xd3, 0x0d, 0xbe, 0xe2, 0x6a, 0x64, 0xbe, 0x35, 0x08, 0x20, 0x3c,
  0x41, 0x7f, 0xb5, 0x3d, 0x8c, 0x86, 0x03, 0xbe, 0xbd, 0x81, 0x9c, 0x3d,
  0xa6, 0x0c, 0x72, 0xbd, 0x3f, 0xe8, 0x22, 0xbe, 0x36, 0x7f, 0x84, 0xbc,
  0x3f, 0x12, 0xb9, 0x3f, 0x69, 0x53, 0xb0, 0xbd, 0x11, 0xa6, 0x6c, 0xbe,
  0xa7, 0x56, 0xf3, 0xbd, 0x11, 0x6a, 0x8c, 0xbe, 0xd9, 0xa7, 0xaa, 0x3c,
  0x83, 0x44, 0x06, 0xbe, 0x91, 0x2d, 0xe1, 0x3c, 0xc8, 0xe9, 0x84, 0x3c,
  0x6e, 0x89, 0x87, 0xbe, 0x20, 0x52, 0xf1, 0x3d, 0xe6, 0xc9, 0x51, 0xbe,
  0xd3, 0xcb, 0x29, 0xbd, 0xe0, 0xf8, 0x16, 0xbe, 0x08, 0xf5, 0x44, 0xbd,
  0x30, 0xdd, 0x3c, 0x3d, 0xb2, 0x82, 0xc2, 0x3f, 0xab, 0xc5, 0x20, 0xbe,
  0x2f, 0xa0, 0x40, 0x3d, 0xb3, 0x9f, 0xbc, 0xbd, 0x93, 0xa1, 0x51, 0xbd,
  0x12, 0x47, 0x35, 0xbe, 0x64, 0xfa, 0x01, 0xbd, 0x21, 0x85, 0x4d, 0xbe,
  0xb9, 0x76, 0x06, 0x3e, 0x81, 0x7e, 0x74, 0xbe, 0xd5, 0x60, 0x43, 0x3d,
  0x1f, 0xc7, 0x7d, 0x3d, 0x87, 0xf5, 0x5e, 0x3c, 0x15, 0x65, 0x4c, 0xbe,
  0xca, 0x48, 0x0c, 0x3d, 0x4f, 0x60, 0xb7, 0x3d, 0x08, 0x2f, 0xc6, 0x3f,
  0xa4, 0x72, 0x97, 0x3d, 0x75, 0x6b, 0x71, 0x3b, 0x66, 0x98, 0x5a, 0xbe,
  0x7c, 0x12, 0x7d, 0xbe, 0xa6, 0x4b, 0x66, 0xbe, 0x12, 0xa1, 0x4d, 0xbd,
  0xa6, 0xdb, 0x97, 0x3c, 0xb0, 0x0d, 0xe9, 0xbd, 0xb0, 0x6f, 0xa1, 0xbd,
  0x34, 0x79, 0xc7, 0xbc, 0xee, 0x9a, 0x48, 0xbc, 0x13, 0x78, 0x7e, 0xbd,
  0x2c, 0x40, 0xc7, 0xbd, 0xe7, 0x41, 0x89, 0xbd, 0x26, 0x73, 0x52, 0xbe,
  0xd8, 0xcd, 0x9b, 0x3f, 0x6d, 0xdb, 0xd8, 0xbd, 0x4f, 0x4c, 0xbc, 0x3c,
  0x01, 0x27, 0x88, 0xbe, 0x20, 0x3d, 0x98, 0xbd, 0x50, 0x85, 0x9b, 0xbd,
  0x31, 0x46, 0x81, 0xbe, 0x39, 0x33, 0xbf, 0xbd, 0x07, 0x46, 0x80, 0xbe,
  0x32, 0x04, 0x69, 0xbe, 0xd6, 0xee, 0x82, 0xbe, 0x00, 0x1f, 0x80, 0x3e,
  0xdc, 0x39, 0x55, 0xbe, 0xb5, 0x09, 0xb5, 0x3e, 0x18, 0x36, 0x62, 0x3e,
  0x0e, 0x03, 0x03, 0xbe, 0xa9, 0x84, 0x46, 0x3f, 0xea, 0x25, 0xe7, 0x3d,
  0xc7, 0xa0, 0x19, 0x3e, 0x89, 0x6c, 0xc4, 0xbd, 0xf4, 0x2a, 0x61, 0xbd,
  0x7c, 0x1b, 0x7e, 0xbd, 0xcb, 0x0c, 0x52, 0xbe, 0x11, 0x64, 0x71, 0x3e,
  0xdc, 0x8f, 0x03, 0xbd, 0x05, 0xdb, 0xa2, 0xbd, 0xaf, 0xce, 0x4d, 0x3d,
  0x8b, 0x66, 0xc9, 0xbc, 0xf2, 0xd0, 0xfb, 0xbd, 0xdb, 0xec, 0x22, 0x3d,
  0x04, 0xca, 0x87, 0xbd, 0x60, 0x0e, 0x03, 0x3e, 0x48, 0x9c, 0x6f, 0x3f,
  0x7f, 0xf2, 0xed, 0x3c, 0x70, 0xa8, 0xdb, 0x3d, 0x70, 0x44, 0x25, 0xbe,
  0xe5, 0x20, 0x2c, 0x3e, 0x83, 0x22, 0x64, 0x3e, 0x4f, 0x6d, 0x87, 0xbc,
  0x92, 0x27, 0xf2, 0xbc, 0xf2, 0x6f, 0xbc, 0x3d, 0x34, 0x02, 0x44, 0xbd,
  0xc8, 0x6e, 0xbc, 0xbd, 0xfb, 0x9c, 0xa6, 0xbd, 0x01, 0x4b, 0x8b, 0x3d,
  0x61, 0x2b, 0xf0, 0xbc, 0xa6, 0x09, 0x53, 0x3e, 0x15, 0xc9, 0xfe, 0xbb,
  0xac, 0xb9, 0x80, 0x3f, 0x65, 0x98, 0x8a, 0x3e, 0x29, 0x7b, 0x73, 0x3d,
  0xd8, 0x09, 0xaf, 0xbd, 0x7f, 0xca, 0x7f, 0xbd, 0xae, 0xba, 0x55, 0x3e,
  0xb4, 0x6f, 0x65, 0xbd, 0x1d, 0xc4, 0x24, 0x3e, 0x00, 0xd0, 0x93, 0xbd,
  0xbc, 0x76, 0x66, 0xbe, 0x0d, 0x0d, 0x7e, 0xbd, 0xaa, 0x64, 0x97, 0x3d,
  0xfb, 0xe0, 0xd2, 0x3c, 0xfa, 0x00, 0xa2, 0x3d, 0x8a, 0xa6, 0xb2, 0x3e,
  0xd8, 0xd4, 0x1d, 0x3e, 0xf2, 0x5c, 0x83, 0x3f, 0x9a, 0x49, 0x4e, 0xbc,
  0xf8, 0xbc, 0x5b, 0xbe, 0xd9, 0x78, 0x31, 0xbd, 0xa1, 0x44, 0xa2, 0xbd,
  0x35, 0x30, 0xb8, 0x3d, 0xaf, 0xd1, 0x59, 0xbd, 0x0a, 0x54, 0xe5, 0x3d,
  0x3d, 0xb4, 0x12, 0xbc, 0xe9, 0xf8, 0x5a, 0xbe, 0x5d, 0x16, 0x47, 0xbd,
  0xe9, 0xbb, 0xa4, 0x3d, 0x93, 0x80, 0xae, 0x3c, 0x97, 0xcf, 0x79, 0x3e,
  0xfa, 0x54, 0x00, 0x3e, 0x7e, 0x38, 0x07, 0x3e, 0xa4, 0xf9, 0x68, 0x3f,
  0x2d, 0x89, 0x81, 0x3e, 0xa5, 0x1b, 0x2b, 0xbe, 0x5e, 0x85, 0x42, 0xbd,
  0x2b, 0x9a, 0x95, 0x3c, 0x69, 0x4d, 0x11, 0x3e, 0x60, 0xcc, 0x10, 0x3c,
  0xe4, 0xd2, 0xfd, 0xbd, 0xc0, 0x73, 0xa5, 0xbe, 0x77, 0x14, 0xd9, 0xbd,
  0x89, 0x16, 0x9c, 0xbd, 0x01, 0x00, 0x83, 0x3e, 0x3b, 0xf1, 0x36, 0xbe,
  0x41, 0xaf, 0x3c, 0x3e, 0x5d, 0xe8, 0x37, 0xbe, 0xfb, 0x0b, 0x52, 0x3c,
  0x44, 0xdd, 0x7a, 0x3f, 0x1c, 0x69, 0x1c, 0x3e, 0x99, 0xe9, 0x13, 0x3e,
  0x6b, 0x8d, 0x0c, 0xbe, 0xff, 0x63, 0x90, 0xbd, 0x19, 0xec, 0x72, 0x3d,
  0x94, 0xd9, 0x7b, 0xbb, 0x2f, 0xf0, 0x75, 0xbe, 0xd2, 0xe2, 0xbe, 0x3c,
  0xa0, 0xdf, 0x9a, 0xbe, 0x85, 0x66, 0xe5, 0xbd, 0xee, 0x79, 0xdc, 0xbd,
  0x1a, 0xc3, 0xe8, 0x3c, 0xcf, 0x6d, 0xc0, 0xbd, 0xdb, 0xf8, 0x7f, 0xbc,
  0xa5, 0xe6, 0xa1, 0xbe, 0x0b, 0x92, 0x37, 0x3f, 0x5f, 0x9b, 0x94, 0xbe,
  0xa6, 0x0d, 0xea, 0xbd, 0x31, 0x44, 0xe0, 0xbd, 0xc8, 0x90, 0xac, 0xbe,
  0xc3, 0x02, 0xea, 0x3d, 0x4c, 0xf1, 0x90, 0xbd, 0x45, 0x3a, 0xb8, 0xbd,
  0xcd, 0x59, 0x8b, 0x3d, 0x0c, 0xc1, 0x7b, 0xbd, 0x8a, 0xa8, 0x03, 0xbe,
  0x17, 0xd9, 0x63, 0xbe, 0xd4, 0xc1, 0xbc, 0x3d, 0x01, 0x06, 0xe2, 0xbd,
  0x31, 0x36, 0x26, 0xbe, 0xf2, 0x27, 0x89, 0x3d, 0x28, 0x55, 0xce, 0x3d,
  0x3d, 0xe3, 0x27, 0xbe, 0xca, 0xe9, 0x86, 0xbd, 0x9e, 0xba, 0x32, 0xbd,
  0x6a, 0x8b, 0x97, 0xbe, 0x77, 0x17, 0x00, 0x3e, 0xd5, 0xe2, 0x05, 0xbf,
  0x7b, 0x8b, 0x96, 0xbd, 0x4d, 0xd7, 0x41, 0x3e, 0x10, 0x7d, 0xcb, 0xbd,
  0x11, 0x66, 0xd3, 0x3d, 0xdd, 0xdd, 0x0d, 0xbd, 0x59, 0x2d, 0x0c, 0x3e,
  0x55, 0x5b, 0x17, 0xbe, 0x5e, 0xe7, 0x42, 0x3e, 0x29, 0xbb, 0x7e, 0x3d,
  0xb8, 0xce, 0x8a, 0xbd, 0x22, 0xd0, 0x97, 0xbe, 0x4a, 0x4a, 0xb9, 0xbd,
  0xa8, 0xa5, 0x4f, 0xbe, 0xaa, 0x81, 0xd7, 0xbd, 0x7b, 0xd5, 0xcb, 0xbd,
  0xb4, 0xa9, 0x3b, 0xbe, 0xc1, 0xf5, 0x87, 0xbe, 0xf8, 0xe2, 0x2e, 0x3e,
  0xbd, 0x14, 0x09, 0xbe, 0xf1, 0x07, 0x50, 0xbe, 0x51, 0x25, 0x24, 0x3b,
  0xc6, 0x22, 0x22, 0xbe, 0x26, 0xf4, 0xe9, 0x3b, 0x32, 0xd8, 0x22, 0x3e,
  0xc7, 0xb7, 0xc2, 0x3d, 0x03, 0x8a, 0xf8, 0xbb, 0x87, 0x72, 0x4e, 0xbe,
  0x11, 0xf2, 0xa4, 0xba, 0xfb, 0x5f, 0xa0, 0x3d, 0xb3, 0xd6, 0xc1, 0xbd,
  0xc0, 0xa8, 0xad, 0xbd, 0xb6, 0x85, 0xda, 0x3d, 0x55, 0xc1, 0xec, 0x3e,
  0xfa, 0xdb, 0xdd, 0xbd, 0x30, 0x25, 0x83, 0x3e, 0xb2, 0x24, 0x71, 0x3d,
  0x89, 0xd5, 0x15, 0x3e, 0x68, 0xc1, 0x29, 0x3e, 0x99, 0x3c, 0xfa, 0xbb,
  0x9c, 0x31, 0xa2, 0x3d, 0x5c, 0xd9, 0xc4, 0x3d, 0xd9, 0x20, 0x39, 0xbe,
  0x78, 0x21, 0x8d, 0xbd, 0xb9, 0x2d, 0x0a, 0xbe, 0xfb, 0xbf, 0x80, 0xbe,
  0xa2, 0x75, 0xc0, 0x3a, 0x06, 0x63, 0x38, 0x3c, 0xdf, 0x8d, 0xbf, 0xbd,
  0x05, 0x43, 0x84, 0x3d, 0x66, 0x2a, 0x5f, 0xbe, 0x29, 0xd2, 0x3a, 0x3e,
  0x79, 0x58, 0x24, 0x3c, 0xbf, 0x9c, 0xfe, 0x3d, 0x3b, 0x1a, 0xd7, 0xbd,
  0x06, 0xfd, 0x88, 0x3c, 0xa1, 0x32, 0xf1, 0x3d, 0xb7, 0x5a, 0x22, 0xbe,
  0x35, 0x5a, 0xf7, 0xbd, 0x0d, 0x9a, 0x8b, 0x3b, 0x84, 0x45, 0x48, 0x3e,
  0x1b, 0x9d, 0xd5, 0x3c, 0x3d, 0x86, 0x91, 0xbe, 0xb5, 0x8a, 0x82, 0xbe,
  0x84, 0xe5, 0x49, 0x3e, 0x02, 0x15, 0xbc, 0x3e, 0xcd, 0x39, 0x23, 0x3e,
  0x4a, 0xcd, 0x95, 0xbc, 0x7c, 0x1d, 0x43, 0xbe, 0x88, 0x08, 0x2a, 0xbe,
  0x6d, 0x5e, 0x8f, 0xbd, 0x05, 0x1c, 0x1a, 0xbe, 0x9e, 0xac, 0x51, 0x3d,
  0x82, 0xf6, 0x38, 0xbe, 0x57, 0x6d, 0xc2, 0xbd, 0xf9, 0x00, 0x5d, 0xbe,
  0xbb, 0xcf, 0x5e, 0xbe, 0x87, 0xea, 0x5a, 0xbe, 0x17, 0x94, 0x47, 0xbe,
  0xea, 0x8e, 0xa7, 0xbc, 0x15, 0x24, 0x56, 0xbd, 0x9a, 0x78, 0xf0, 0xbd,
  0x77, 0x45, 0x27, 0xbd, 0x74, 0x5e, 0xed, 0x3d, 0x13, 0xf2, 0x23, 0xbe,
  0x46, 0x93, 0xae, 0x3d, 0xdd, 0xae, 0x7d, 0xbc, 0x1c, 0x00, 0x89, 0xbe,
  0x9a, 0xfb, 0x9b, 0x3d, 0xee, 0xe5, 0x0f, 0xbe, 0xdc, 0x71, 0x91, 0xbd,
  0x26, 0x56, 0x96, 0xbe, 0xa6, 0x4d, 0xe5, 0x3b, 0xc4, 0x12, 0xe4, 0xba,
  0x71, 0xc9, 0x76, 0xbd, 0x29, 0x5a, 0x04, 0xbe, 0xe1, 0x9a, 0xaf, 0xbe,
  0xec, 0xaa, 0x82, 0xbe, 0x1e, 0x76, 0x28, 0xbd, 0x14, 0x99, 0x22, 0x3d,
  0xa5, 0xf0, 0x04, 0x3e, 0x0a, 0x87, 0xcb, 0x3d, 0xba, 0x3f, 0xc2, 0x3d,
  0xf3, 0x04, 0x26, 0xbe, 0x89, 0x69, 0xa6, 0xbe, 0x98, 0x11, 0x2a, 0x3e,
  0x37, 0xfe, 0x1c, 0x3e, 0x91, 0x05, 0x36, 0xbd, 0xdf, 0x46, 0x1c, 0xbd,
  0x58, 0xb0, 0xa5, 0x3c, 0x6d, 0xf5, 0x80, 0x3d, 0x4d, 0x72, 0x0c, 0xbd,
  0x51, 0x72, 0x1a, 0xbe, 0xe3, 0xe1, 0x2e, 0x3d, 0x03, 0x51, 0xec, 0x3d,
  0x7b, 0x95, 0xbc, 0x3e, 0x74, 0x13, 0x5d, 0x3d, 0x3d, 0x33, 0xef, 0xbd,
  0x7f, 0x85, 0x47, 0xbe, 0xcc, 0x8a, 0xaa, 0xbe, 0x06, 0xe5, 0x20, 0x3c,
  0x94, 0xc6, 0xd1, 0xbc, 0xe6, 0x7a, 0x4f, 0xbc, 0xeb, 0xd0, 0x85, 0xbe,
  0x88, 0xf5, 0x6d, 0xbe, 0x5a, 0x01, 0xdc, 0x3d, 0x43, 0xb2, 0xad, 0x3b,
  0x5a, 0x86, 0x20, 0x3d, 0xdd, 0x0d, 0xf3, 0xbd, 0xe1, 0x52, 0xa2, 0xbe,
  0x25, 0xdf, 0x4b, 0x3e, 0xb6, 0x90, 0xa8, 0x3e, 0xa8, 0x80, 0x91, 0x3e,
  0x39, 0x62, 0x92, 0x3e, 0x64, 0x39, 0x76, 0x3e, 0xfb, 0xce, 0xb7, 0x3b,
  0x53, 0x3f, 0x4c, 0xbe, 0x7b, 0x71, 0x69, 0x3e, 0x08, 0x25, 0xf2, 0x3b,
  0x0a, 0x52, 0x97, 0x3b, 0x72, 0x2e, 0x40, 0xbe, 0x6b, 0x87, 0x60, 0x3e,
  0x53, 0x19, 0x70, 0xbe, 0x16, 0xe4, 0x45, 0x3e, 0xbc, 0x25, 0xa7, 0xbe,
  0x9d, 0x17, 0xa6, 0xbb, 0x47, 0x4d, 0x8b, 0xbe, 0xff, 0xa3, 0x5b, 0x3e,
  0xe3, 0x3a, 0x15, 0x3f, 0x21, 0x9c, 0xbc, 0x3e, 0x09, 0x76, 0x85, 0x3d,
  0x75, 0xe5, 0x93, 0xbd, 0x3d, 0xbb, 0x53, 0x3d, 0x4f, 0xc7, 0x32, 0x3e,
  0x25, 0x82, 0xb5, 0xbd, 0xb6, 0xeb, 0x4b, 0x3e, 0x60, 0xb2, 0x7b, 0x3d,
  0x6d, 0x04, 0x10, 0xbe, 0x52, 0x1c, 0x04, 0xbd, 0x41, 0xf5, 0x46, 0xbd,
  0x46, 0x3d, 0xab, 0xbd, 0xec, 0x90, 0x48, 0x3e, 0x6f, 0x0b, 0xb9, 0xbd,
  0xde, 0x13, 0x30, 0x3e, 0xe4, 0xc9, 0x21, 0x3d, 0x0f, 0x72, 0x80, 0x3e,
  0xe8, 0x43, 0xe8, 0xbc, 0x7c, 0x2d, 0xcc, 0xbc, 0x43, 0x08, 0xab, 0x3d,
  0xa0, 0xa1, 0xb2, 0xbd, 0x57, 0xf6, 0x03, 0xbe, 0xf6, 0x23, 0x60, 0x3e,
  0x6c, 0xcc, 0xd8, 0x3d, 0x91, 0x47, 0xdd, 0xbd, 0xa0, 0x5d, 0x61, 0xbe,
  0xe3, 0xdf, 0x38, 0xbe, 0x7a, 0xc5, 0x35, 0xbe, 0x4f, 0x5f, 0x62, 0x3e,
  0xc9, 0x26, 0x14, 0xbb, 0xcf, 0x4c, 0x82, 0xbd, 0x45, 0xce, 0x27, 0xbe,
  0x51, 0x2f, 0xd6, 0x3e, 0x1b, 0x96, 0x6d, 0x3e, 0x1a, 0x7a, 0xb6, 0x3c,
  0xc1, 0xe2, 0xff, 0xbd, 0x34, 0xe9, 0x85, 0x3d, 0x07, 0xdc, 0x0b, 0xbe,
  0xfa, 0x58, 0x36, 0x3e, 0xf2, 0x23, 0x52, 0x3e, 0xf2, 0xd6, 0xe4, 0xbd,
  0x5a, 0xa4, 0x34, 0xbd, 0x0d, 0x4b, 0xf0, 0xbd, 0xa9, 0x6f, 0xaa, 0xbe,
  0x98, 0xc7, 0x1d, 0xbd, 0x49, 0x6a, 0x80, 0xbd, 0xd6, 0xcc, 0x0f, 0x3b,
  0x14, 0x7f, 0x42, 0xbe, 0x3f, 0x3e, 0x8b, 0x3e, 0xa2, 0x37, 0x80, 0xbc,
  0x41, 0x6b, 0xa2, 0xbd, 0x6b, 0x0d, 0x34, 0xbe, 0x04, 0x1d, 0xc2, 0x3e,
  0xb5, 0x54, 0x39, 0xbe, 0xef, 0x66, 0xa9, 0x3c, 0xda, 0x55, 0xa0, 0x3d,
  0x2b, 0xa8, 0xf9, 0xbe, 0xd0, 0xef, 0x99, 0x3c, 0x22, 0x33, 0x85, 0x3c,
  0x4c, 0x36, 0xb1, 0xbd, 0x9c, 0xfd, 0x75, 0xbe, 0xb7, 0x27, 0x20, 0xbf,
  0x4b, 0x2f, 0x6e, 0xbe, 0x03, 0x45, 0x7f, 0xbd, 0xc8, 0xa3, 0x20, 0xbd,
  0x84, 0xc4, 0xff, 0xbd, 0xca, 0x80, 0x7a, 0x3e, 0xc5, 0xb5, 0x4a, 0x3d,
  0xf7, 0x32, 0x9e, 0xbe, 0xe0, 0xb2, 0xcb, 0x3f, 0x9b, 0x6c, 0x19, 0x3e,
  0x40, 0xc3, 0xe6, 0x3d, 0xea, 0xdf, 0x1a, 0xbe, 0x3b, 0xa5, 0xd6, 0xbd,
  0xf9, 0xf7, 0x24, 0x3e, 0xd3, 0x6c, 0x04, 0xbe, 0x42, 0x2a, 0xaa, 0x3d,
  0xfc, 0x45, 0x2e, 0x3d, 0x49, 0x52, 0x8e, 0xbe, 0x95, 0xa6, 0x24, 0xbd,
  0x83, 0x77, 0x19, 0x3e, 0x03, 0xfb, 0x34, 0x3e, 0x2e, 0x28, 0x4c, 0xbd,
  0xea, 0x73, 0x25, 0xbe, 0x78, 0x92, 0xb3, 0x3c, 0x97, 0x43, 0xe8, 0x3f,
  0x8b, 0x20, 0x3e, 0x3d, 0x8c, 0x2d, 0x83, 0xbc, 0x0f, 0x00, 0x8e, 0xbe,
  0xb1, 0x35, 0xf6, 0x3c, 0x40, 0x78, 0xd8, 0x3e, 0x66, 0x25, 0xe6, 0x3d,
  0x12, 0xbd, 0x50, 0xbe, 0xc4, 0x77, 0x29, 0x3d, 0x05, 0xa7, 0xb8, 0xbe,
  0x37, 0xe2, 0x34, 0x3e, 0xa8, 0x26, 0x3d, 0x3e, 0x9c, 0x10, 0x05, 0x3e,
  0xda, 0xae, 0x1e, 0x3e, 0x18, 0x0d, 0x99, 0x3e, 0x32, 0x79, 0xa7, 0x3d,
  0x96, 0x94, 0x12, 0x40, 0x02, 0x6e, 0x18, 0xbe, 0x8b, 0x67, 0x88, 0x3d,
  0x27, 0xa6, 0xe4, 0xbe, 0xf8, 0x20, 0x3b, 0x3e, 0xbf, 0x03, 0x12, 0x3e,
  0xbb, 0xab, 0x92, 0x3d, 0xb1, 0xac, 0xb1, 0xbd, 0x7b, 0xb0, 0x37, 0x3e,
  0x3f, 0x33, 0x8f, 0xbe, 0xd4, 0x5f, 0x03, 0x3e, 0xa1, 0x5a, 0xa8, 0x3d,
  0xd2, 0xc0, 0x32, 0x3e, 0x74, 0x3a, 0xf5, 0x3d, 0x01, 0xb7, 0xa9, 0x3e,
  0xc1, 0xb0, 0x0d, 0x3e, 0x93, 0xeb, 0xef, 0x3f, 0xce, 0xa3, 0x31, 0x3e,
  0xd7, 0x6f, 0x83, 0xbe, 0xef, 0xd9, 0x85, 0xbd, 0xbb, 0xc5, 0xdf, 0x3c,
  0x9c, 0x3c, 0x1f, 0x3d, 0x1e, 0x1c, 0x64, 0xbd, 0xac, 0xc8, 0xa0, 0xbe,
  0x72, 0x43, 0xe1, 0xbd, 0x58, 0xfa, 0x86, 0xbe, 0xf5, 0xc0, 0x1a, 0xbe,
  0x5d, 0x44, 0x6b, 0x3e, 0x65, 0x1d, 0x11, 0xbe, 0xfa, 0xe6, 0x93, 0x3e,
  0x81, 0x48, 0x33, 0x3e, 0xa1, 0x3e, 0xa0, 0x3d, 0x2f, 0x00, 0xfb, 0x3f,
  0x18, 0xe0, 0x16, 0x3e, 0xf9, 0xa0, 0x93, 0x3e, 0x26, 0xf8, 0x52, 0xbe,
  0x13, 0x2a, 0x24, 0xbe, 0xc0, 0x4e, 0xcb, 0x3d, 0xf5, 0xc9, 0xd5, 0xbd,
  0x67, 0x8b, 0xeb, 0x3d, 0x56, 0xa7, 0x9d, 0xbe, 0xe0, 0xd9, 0x06, 0xbe,
  0xce, 0x47, 0x84, 0x3d, 0x74, 0xd2, 0x93, 0x3e, 0x2c, 0x4f, 0x46, 0xbe,
  0x79, 0x81, 0xb7, 0x3e, 0xd0, 0x94, 0x00, 0x3e, 0x23, 0xe7, 0xaa, 0xbe,
  0x04, 0x98, 0x0f, 0x40, 0x4c, 0xc0, 0xa3, 0x3e, 0x84, 0x79, 0x51, 0xbe,
  0x1e, 0x8b, 0xd3, 0xbc, 0x1f, 0x66, 0x02, 0xbe, 0x8f, 0x7c, 0x8d, 0x3d,
  0x49, 0x8b, 0x3d, 0xbc, 0xe5, 0x83, 0x8b, 0xbc, 0x43, 0x92, 0x54, 0xbe,
  0xa4, 0x02, 0x83, 0xbe, 0x65, 0x8f, 0xe2, 0xbd, 0x8c, 0x83, 0x03, 0x3e,
  0x44, 0x22, 0x9d, 0x3c, 0x0a, 0xb3, 0xbf, 0xbd, 0x5c, 0x7a, 0x14, 0xbd,
  0xd3, 0xb7, 0xef, 0xbd, 0x87, 0x53, 0x56, 0x3f, 0xf7, 0xa0, 0x98, 0xbd,
  0x68, 0x36, 0xc2, 0xbd, 0x1e, 0x33, 0xdf, 0xbd, 0x0b, 0xb3, 0xee, 0xbd,
  0x9c, 0x5a, 0x3b, 0xbe, 0x3f, 0xe7, 0xcf, 0x3d, 0xf7, 0x1a, 0x0b, 0xbe,
  0xe8, 0x2f, 0xb7, 0xbd, 0x8f, 0x73, 0xb4, 0xbd, 0xb6, 0xf5, 0xa3, 0xbe,
  0x8b, 0x86, 0x58, 0x3e, 0x4d, 0xfd, 0x9d, 0xbe, 0x77, 0xcc, 0xae, 0xbe,
  0xa9, 0x27, 0x97, 0xbe, 0xc4, 0xf8, 0xe4, 0x3c, 0xb3, 0x55, 0x68, 0xbe,
  0xcb, 0x01, 0xa2, 0xbe, 0xf6, 0x1c, 0xd4, 0xbe, 0x5e, 0xbd, 0xac, 0x3b,
  0x0d, 0xf5, 0x70, 0xbd, 0x9e, 0xe2, 0x83, 0xbe, 0xae, 0xc7, 0xc1, 0x3d,
  0x19, 0x1a, 0x4c, 0xbd, 0xb6, 0x85, 0x18, 0xbe, 0x90, 0xec, 0x38, 0x3e,
  0x14, 0x8c, 0x84, 0x3d, 0xe7, 0x41, 0xf8, 0x3e, 0x2a, 0x68, 0x09, 0x3e,
  0x82, 0xf6, 0xef, 0xbe, 0x40, 0x5e, 0xeb, 0x3c, 0x60, 0xa4, 0xb1, 0x3e,
  0xc5, 0xcb, 0x93, 0xbe, 0x34, 0xd3, 0xac, 0xbe, 0xb2, 0xc6, 0x2e, 0xbe,
  0x2c, 0x79, 0x1b, 0xbc, 0xe5, 0x14, 0x85, 0x3d, 0x52, 0xbe, 0x19, 0xbd,
  0x23, 0x53, 0x74, 0x3d, 0x19, 0x33, 0xa2, 0x3d, 0x36, 0xff, 0x9e, 0xbe,
  0x80, 0xf7, 0x8d, 0x3e, 0x42, 0xc5, 0x06, 0x3e, 0x7f, 0x70, 0xfa, 0x3e,
  0x42, 0xb9, 0xda, 0x3e, 0x15, 0x7f, 0xc4, 0x3d, 0x0c, 0x2b, 0xa6, 0x3d,
  0x3b, 0x00, 0x5a, 0x3e, 0xa1, 0x22, 0x19, 0xbe, 0xb1, 0xfb, 0xb0, 0x3d,
  0x58, 0x2e, 0xcf, 0x3d, 0xda, 0xc9, 0xaf, 0x3d, 0xcb, 0xef, 0x1d, 0x3d,
  0xbe, 0xed, 0x82, 0x3c, 0x08, 0xf3, 0xa6, 0x3d, 0x20, 0x1b, 0x58, 0x3e,
  0x40, 0x2c, 0x52, 0xbe, 0x44, 0xd4, 0xb5, 0x3e, 0x09, 0x8e, 0x85, 0x3d,
  0x1d, 0x84, 0x86, 0x3e, 0xc1, 0xd8, 0x41, 0x3e, 0x87, 0x39, 0xb5, 0xbd,
  0xdb, 0x7d, 0x61, 0x3e, 0xf5, 0x9e, 0xfa, 0x3e, 0xf3, 0x76, 0x3f, 0xbe,
  0x1f, 0x44, 0x53, 0xbe, 0x72, 0xdd, 0xea, 0x3d, 0xc0, 0x23, 0xdf, 0xbc,
  0x8e, 0x8b, 0x0b, 0x3e, 0x02, 0x9c, 0x5a, 0xbe, 0xf1, 0x5f, 0x1f, 0x3d,
  0x38, 0xc2, 0x18, 0x3e, 0x0b, 0x8a, 0x56, 0xbe, 0xf3, 0xf9, 0x0b, 0x3e,
  0x8e, 0x03, 0x0c, 0xbc, 0xc4, 0xc9, 0x6b, 0x3e, 0x65, 0xef, 0x72, 0xbd,
  0xc6, 0xcd, 0x83, 0xbd, 0x7d, 0xcd, 0x20, 0xbe, 0x13, 0xe7, 0x6d, 0x3e,
  0x31, 0xaa, 0x74, 0xbe, 0xcb, 0xa8, 0xcb, 0xbd, 0xb3, 0x06, 0xaf, 0x3c,
  0xec, 0xbe, 0x43, 0xbd, 0x16, 0xa6, 0xbd, 0xbd, 0x75, 0xd0, 0xed, 0xbe,
  0x25, 0xab, 0xac, 0x3b, 0xaf, 0xda, 0x72, 0x3d, 0x9d, 0x1a, 0xf1, 0x3b,
  0xe3, 0x7d, 0x46, 0x3e, 0x19, 0xc2, 0x98, 0x3d, 0x7c, 0xf7, 0x69, 0xbd,
  0xfb, 0x30, 0xf3, 0xbd, 0xfd, 0xf0, 0xca, 0xbd, 0x45, 0xdc, 0xc0, 0xbe,
  0xe8, 0x83, 0x3c, 0x3e, 0xed, 0xfe, 0x76, 0xbe, 0x67, 0x0a, 0xa6, 0xbe,
  0xbb, 0x86, 0x6e, 0x3e, 0x7a, 0xc7, 0x08, 0xbd, 0xd5, 0xd4, 0xdf, 0xbd,
  0x4f, 0x81, 0x7c, 0xbe, 0x89, 0x24, 0x07, 0x3c, 0x3d, 0x7b, 0xa5, 0xbc,
  0x9a, 0x6b, 0x4a, 0xbe, 0xed, 0x20, 0x7a, 0x3c, 0xee, 0x2b, 0x1e, 0xbe,
  0x48, 0x37, 0x63, 0x3e, 0x68, 0xa9, 0xe8, 0xbd, 0xfd, 0x96, 0x8e, 0xbc,
  0xf5, 0x16, 0xc7, 0xbd, 0xcf, 0x34, 0x88, 0x3e, 0x1f, 0x98, 0xa2, 0xbe,
  0x0d, 0x0c, 0xc8, 0xbd, 0x0d, 0x4f, 0xdc, 0xbd, 0xb1, 0x18, 0xe4, 0xbd,
  0xaa, 0xf7, 0x06, 0xbf, 0xcf, 0x83, 0x2c, 0xbd, 0x0a, 0xb7, 0xa9, 0xbe,
  0x75, 0xf6, 0xdb, 0xbb, 0x42, 0x11, 0x2d, 0xbe, 0x9b, 0xe9, 0x03, 0xbe,
  0x7e, 0x38, 0x35, 0xbd, 0x4e, 0x83, 0x2f, 0x3d, 0x18, 0xf8, 0xd1, 0xbd,
  0x69, 0x4a, 0x80, 0xbd, 0x5d, 0x71, 0x00, 0xbf, 0x49, 0x51, 0xd5, 0xbe,
  0xa8, 0x2d, 0x42, 0xbe, 0x68, 0xda, 0x8c, 0xbe, 0xba, 0x77, 0xe0, 0xbd,
  0x53, 0xf1, 0xa2, 0xbd, 0x41, 0x29, 0x21, 0xbf, 0xe9, 0x90, 0xb1, 0xbe,
  0x50, 0x23, 0x07, 0xbe, 0xf1, 0x78, 0x70, 0x3e, 0x59, 0x59, 0x42, 0xbe,
  0x1c, 0xd7, 0x0b, 0x3e, 0xfa, 0xdd, 0x78, 0x3c, 0xe9, 0xb6, 0x29, 0x3e,
  0x19, 0x66, 0x6e, 0xbe, 0x9a, 0x22, 0xf2, 0xbd, 0x97, 0xde, 0x8b, 0xbc,
  0x6f, 0xb6, 0x62, 0xbd, 0xe4, 0x74, 0x26, 0xbe, 0x82, 0x5e, 0x93, 0xbe,
  0x45, 0x6f, 0x5a, 0x3d, 0xd8, 0x1b, 0xce, 0xbd, 0xd1, 0xbb, 0x18, 0xbf,
  0xfa, 0x40, 0x94, 0xbe, 0x0d, 0xe2, 0x9d, 0xbd, 0x3e, 0x14, 0xe6, 0x3d,
  0xb0, 0xa7, 0xd2, 0xbe, 0x55, 0x26, 0xdf, 0x3d, 0xb0, 0x27, 0xe2, 0xbe,
  0xbc, 0xb5, 0xb1, 0x3d, 0x89, 0x8a, 0xad, 0x3c, 0x2a, 0xa3, 0xa1, 0xbd,
  0xf8, 0x4c, 0x3f, 0xbd, 0x79, 0x70, 0xa5, 0xbd, 0x46, 0x2b, 0x1e, 0xbd,
  0xe8, 0x94, 0xf5, 0xbd, 0x00, 0xce, 0xc0, 0x3d, 0xa9, 0xf2, 0x6d, 0xbd,
  0x30, 0x0c, 0x08, 0xbf, 0x8b, 0x1c, 0x2b, 0xbf, 0x17, 0x9d, 0x24, 0xbe,
  0x6d, 0x1a, 0x34, 0x3e, 0x08, 0x7b, 0x47, 0x3d, 0xca, 0x77, 0x89, 0xbd,
  0xbe, 0xde, 0xb2, 0xbe, 0x73, 0xc0, 0xea, 0x3d, 0xcf, 0x06, 0x27, 0xbe,
  0xfc, 0xff, 0x38, 0x3d, 0x62, 0x09, 0xc4, 0xbe, 0x75, 0xb4, 0x6a, 0xbe,
  0x2b, 0x0e, 0x3e, 0xbd, 0x64, 0xca, 0xc9, 0xbd, 0xcd, 0x2c, 0x0a, 0x3e,
  0x33, 0x2c, 0xbe, 0xbd, 0x2a, 0x85, 0x1e, 0xbe, 0x6b, 0x83, 0xc3, 0x3b,
  0xcc, 0x43, 0x79, 0xbd, 0x5c, 0xc2, 0x1a, 0xbd, 0x04, 0x77, 0xab, 0x3e,
  0x39, 0x98, 0x78, 0xbd, 0x01, 0x63, 0xa2, 0x3e, 0x59, 0xe2, 0x8f, 0x3d,
  0x7e, 0x19, 0xcb, 0x3e, 0x68, 0x95, 0x31, 0xbe, 0x07, 0xe5, 0x75, 0x3e,
  0x69, 0x75, 0xfb, 0x3a, 0x38, 0xee, 0xa2, 0xbd, 0xac, 0xbb, 0xb2, 0xbe,
  0x73, 0x75, 0x81, 0xbe, 0xa0, 0xa7, 0xb4, 0x3d, 0x3c, 0x16, 0xc0, 0xbd,
  0xfb, 0x48, 0x50, 0xbb, 0x4c, 0x1c, 0x2e, 0xbc, 0xd9, 0xd3, 0x5a, 0xbe,
  0x7d, 0x7c, 0x79, 0x3e, 0x3c, 0xf8, 0xe2, 0x3d, 0x26, 0xc5, 0xcb, 0x3e,
  0x1d, 0xf7, 0x9d, 0xbd, 0x10, 0x1d, 0xb2, 0x3e, 0x3e, 0x77, 0x19, 0xbe,
  0x03, 0x9f, 0x30, 0xbb, 0x5b, 0x72, 0x87, 0x3e, 0x1a, 0xd1, 0xbe, 0xbc,
  0xc2, 0xcb, 0x00, 0xbe, 0xbb, 0x33, 0xc8, 0xbe, 0xa7, 0x32, 0x13, 0x3e,
  0xba, 0xa0, 0x91, 0x3d, 0xc4, 0x74, 0x1c, 0x3d, 0x22, 0x5a, 0xbe, 0x3d,
  0xf8, 0x86, 0x10, 0xbe, 0x7d, 0x4b, 0xfb, 0x3e, 0xd3, 0x24, 0xdf, 0xbc,
  0xdf, 0x01, 0x32, 0x3e, 0xa9, 0xb9, 0xdc, 0x3b, 0x50, 0x44, 0x2d, 0x3e,
  0x2c, 0xc0, 0x05, 0xbd, 0xec, 0x64, 0x56, 0x3d, 0xb8, 0xfb, 0xd1, 0x3d,
  0xf9, 0xc8, 0x37, 0x3e, 0x4a, 0xb0, 0xf5, 0xbc, 0x18, 0x6c, 0xf3, 0xbc,
  0x33, 0xfa, 0x19, 0xbd, 0xf5, 0xc8, 0x06, 0x3e, 0x23, 0x9a, 0xdf, 0x3c,
  0xe7, 0xd8, 0xb2, 0xbb, 0x74, 0xf9, 0x7e, 0xbc, 0xcf, 0x8a, 0x3b, 0xbd,
  0x7b, 0xed, 0x3d, 0x3c, 0x97, 0x62, 0x03, 0x3e, 0x30, 0x87, 0x93, 0xbc,
  0xea, 0x56, 0x66, 0x3e, 0xc3, 0x4c, 0x9c, 0xbd, 0x8a, 0xb0, 0xe0, 0x3d,
  0x98, 0xe3, 0x3e, 0xba, 0xc9, 0xe3, 0x76, 0xbe, 0x73, 0xfe, 0x8c, 0x3d,
  0x9e, 0x83, 0x4e, 0x3e, 0x19, 0x38, 0xfe, 0xbd, 0xd8, 0xb2, 0x21, 0xbc,
  0x7f, 0xda, 0x86, 0x3d, 0x6b, 0x28, 0x16, 0xbc, 0x84, 0x37, 0x61, 0xbd,
  0x6f, 0xe4, 0xeb, 0xbe, 0xd9, 0xc5, 0x38, 0xbe, 0x86, 0x89, 0xe1, 0x3d,
  0x2e, 0xf1, 0x83, 0x3e, 0xc8, 0xc3, 0x9d, 0x3d, 0xec, 0xd6, 0x81, 0x3d,
  0x5a, 0x4f, 0x2c, 0xbd, 0x1b, 0x84, 0x54, 0x3e, 0x67, 0x72, 0x75, 0x3d,
  0xb1, 0x7f, 0x16, 0x3e, 0x51, 0xe9, 0xbd, 0x3d, 0x20, 0x9a, 0x23, 0xbe,
  0xdb, 0x72, 0x6a, 0xbd, 0x69, 0x4a, 0xd0, 0xbb, 0x1e, 0xf1, 0x0a, 0xbd,
  0x5a, 0xf2, 0x0a, 0x3e, 0x27, 0x65, 0xaa, 0xbe, 0x3a, 0x69, 0xd9, 0xbe,
  0xd2, 0xee, 0xa6, 0x3d, 0xab, 0xe6, 0x05, 0x3e, 0xb5, 0xdc, 0x73, 0xbc,
  0xf8, 0x4e, 0xb9, 0xbc, 0xc0, 0x11, 0xbc, 0xbd, 0x35, 0x18, 0x26, 0xbe,
  0xb1, 0x02, 0x20, 0xbe, 0x71, 0x41, 0x90, 0xbb, 0xce, 0x24, 0xf5, 0xbd,
  0xa5, 0xa3, 0xe3, 0xbd, 0x92, 0xc3, 0x0b, 0xbe, 0x67, 0xb8, 0x45, 0xbe,
  0xbe, 0xee, 0x3b, 0xbc, 0x50, 0x3f, 0xc9, 0xbc, 0xdf, 0xdc, 0x85, 0x3d,
  0x5c, 0xec, 0x16, 0xbf, 0x1a, 0x77, 0x0f, 0xbe, 0xa9, 0x86, 0xb7, 0x3d,
  0x8c, 0x6b, 0x58, 0xbe, 0x3c, 0x2a, 0x8d, 0x3d, 0x40, 0xc7, 0x01, 0xbe,
  0x63, 0xd5, 0x91, 0xbe, 0xf6, 0xd0, 0x8d, 0xbd, 0x2e, 0x49, 0x2e, 0x3d,
  0x52, 0x6e, 0x87, 0xbe, 0x29, 0xb1, 0x2e, 0xbe, 0xeb, 0x54, 0x59, 0xbd,
  0x82, 0xed, 0x09, 0x3e, 0xc0, 0xe7, 0x88, 0x39, 0xa5, 0xf4, 0x53, 0xbd,
  0xd9, 0x97, 0xbc, 0x3e, 0x84, 0x86, 0x51, 0xbe, 0x06, 0x60, 0xa6, 0x3e,
  0xc2, 0xd6, 0x90, 0xbd, 0x19, 0x5a, 0xb6, 0x3e, 0xde, 0xa8, 0xa9, 0x3b,
  0xaf, 0x46, 0x97, 0xbc, 0x77, 0xbf, 0xaf, 0xbd, 0xd2, 0xa9, 0x1e, 0xbe,
  0xc4, 0x2e, 0x5d, 0xbe, 0x3c, 0xf9, 0x52, 0xbe, 0xdf, 0x99, 0x67, 0xbd,
  0x65, 0x78, 0x51, 0x3c, 0x29, 0x06, 0x02, 0x3e, 0x5c, 0xf1, 0x75, 0xbc,
  0xc6, 0x9f, 0xb7, 0xbd, 0x9f, 0xa0, 0x8e, 0x3e, 0xe3, 0xfc, 0xec, 0xbd,
  0x07, 0x2e, 0x64, 0x3e, 0xb1, 0xaf, 0x33, 0x3d, 0xb4, 0x1f, 0x99, 0x3c,
  0x9a, 0x41, 0xdb, 0x3b, 0xc2, 0x4e, 0x8d, 0x3d, 0x56, 0x49, 0x2d, 0x3e,
  0xfb, 0x8c, 0x2c, 0x3e, 0x6f, 0x88, 0xae, 0x3d, 0x53, 0xe7, 0x86, 0xbe,
  0xa5, 0x2c, 0x62, 0x3d, 0x53, 0xc6, 0x17, 0x3c, 0xc9, 0x2d, 0xec, 0x3d,
  0x78, 0x25, 0xc9, 0x3c, 0x33, 0x4a, 0x38, 0x3d, 0xb3, 0x58, 0x3e, 0x3e,
  0x79, 0xf0, 0xf2, 0x3d, 0xea, 0xe3, 0x6a, 0x3d, 0x35, 0x8a, 0x53, 0xbe,
  0xa5, 0x1c, 0x64, 0xbc, 0x6f, 0x83, 0x35, 0x3b, 0xe5, 0x1b, 0x79, 0x3d,
  0x94, 0xa3, 0x85, 0xbd, 0xb4, 0x3c, 0x74, 0xbd, 0x32, 0xb0, 0xc5, 0x3c,
  0x79, 0x39, 0xa3, 0x3d, 0xf9, 0x00, 0x55, 0xbd, 0x3f, 0xe6, 0x67, 0xbd,
  0x4c, 0x2d, 0x47, 0xbe, 0x9d, 0x23, 0xb5, 0x3d, 0x80, 0x03, 0x17, 0xbe,
  0xec, 0x7e, 0x15, 0x3e, 0x5a, 0x05, 0xd7, 0xbd, 0xd6, 0x9a, 0x1b, 0x3d,
  0x1b, 0x0d, 0x56, 0xbe, 0xb7, 0x22, 0x6d, 0xbd, 0x7f, 0x77, 0x6f, 0xbc,
  0xa0, 0x67, 0x10, 0xbe, 0x85, 0x50, 0x9f, 0x3d, 0x26, 0x25, 0x11, 0x3d,
  0xd8, 0x0b, 0x02, 0xbe, 0x81, 0x98, 0xdc, 0x3d, 0x53, 0x2f, 0x89, 0x3d,
  0xd1, 0x2d, 0x9e, 0x3b, 0xdf, 0xc8, 0x5d, 0x3d, 0xdc, 0xaa, 0x97, 0xbe,
  0x28, 0x37, 0x30, 0xbe, 0x41, 0xf8, 0x11, 0xbe, 0x9e, 0xce, 0x0b, 0xbe,
  0xaa, 0xb2, 0x23, 0xbe, 0xc7, 0xc9, 0x24, 0x3e, 0xcd, 0x4f, 0x41, 0xbe,
  0xb4, 0x5e, 0x65, 0xbe, 0xa5, 0x3d, 0x8a, 0xbc, 0x9b, 0x45, 0xc7, 0xbd,
  0x99, 0x1e, 0x53, 0xbe, 0x2f, 0x58, 0x68, 0xbc, 0x09, 0xda, 0xda, 0xbd,
  0xbd, 0xcd, 0x46, 0x3a, 0x12, 0xe9, 0x71, 0x3c, 0x73, 0x8d, 0x20, 0x3d,
  0x9c, 0xb5, 0x8a, 0xbd, 0x94, 0xba, 0x34, 0xbe, 0x2f, 0x6f, 0x64, 0xbd,
  0x37, 0x70, 0x47, 0xbe, 0xe2, 0xb1, 0x03, 0xbe, 0xa7, 0x83, 0xe5, 0x3d,
  0x1b, 0x03, 0x12, 0xbd, 0xe9, 0x1f, 0xa5, 0x3c, 0x8b, 0x16, 0xe7, 0xbd,
  0x7b, 0x43, 0x21, 0x3e, 0x5e, 0x85, 0x2c, 0xbd, 0xa4, 0x34, 0x30, 0xbc,
  0xbf, 0x1c, 0xf7, 0xbd, 0x75, 0x15, 0x82, 0x3c, 0xb4, 0x2b, 0xfd, 0xbd,
  0x3d, 0x6a, 0x2e, 0xbd, 0x57, 0x24, 0x0a, 0xbe, 0x6e, 0x65, 0x82, 0xbe,
  0xba, 0x83, 0xc9, 0xbc, 0x2a, 0x09, 0x81, 0x3c, 0xe7, 0xf8, 0x9f, 0xbc,
  0x0d, 0x0a, 0x05, 0x3e, 0x5a, 0x29, 0xa9, 0xbd, 0xb7, 0x64, 0x2a, 0xbe,
  0xaf, 0xb9, 0x12, 0x3e, 0x38, 0xbf, 0xa5, 0xbd, 0xe3, 0x2d, 0x90, 0xbe,
  0x18, 0xda, 0xde, 0xbd, 0xa6, 0x11, 0x07, 0xbe, 0x3d, 0x2d, 0x8c, 0xbe,
  0xc3, 0x58, 0x8c, 0xbc, 0x53, 0xda, 0x05, 0x3d, 0x11, 0xb9, 0xe9, 0xbd,
  0xc4, 0x7d, 0x5a, 0xbe, 0x09, 0xbf, 0xa8, 0xbe, 0x2e, 0x45, 0x2b, 0x3d,
  0x8f, 0x33, 0xeb, 0xbc, 0x95, 0x7f, 0x19, 0x3e, 0x6b, 0x71, 0xd0, 0x3d,
  0xf7, 0x2c, 0xb3, 0x3c, 0x70, 0x77, 0x2a, 0x3d, 0xe6, 0x77, 0xc8, 0x3d,
  0x74, 0x91, 0xed, 0x3c, 0x9d, 0x1f, 0x42, 0x3c, 0x7e, 0xf6, 0x9e, 0x3c,
  0xb5, 0xe7, 0x1e, 0xbe, 0x71, 0xcf, 0x27, 0xbe, 0xf7, 0x56, 0x25, 0xbe,
  0x38, 0xf8, 0x60, 0xbe, 0x55, 0x37, 0x82, 0x3d, 0x0e, 0x9e, 0x53, 0xbe,
  0x41, 0x7f, 0x7e, 0xbe, 0xe1, 0xab, 0xaf, 0xbc, 0x5c, 0x50, 0xed, 0xbd,
  0x05, 0xaf, 0x02, 0xbe, 0x70, 0x6f, 0xb7, 0xbd, 0x46, 0xa2, 0x0a, 0x3e,
  0x66, 0x73, 0x27, 0x3e, 0x15, 0x9a, 0x8b, 0xbd, 0x14, 0x30, 0x02, 0xbe,
  0xa9, 0x60, 0xed, 0xbd, 0xe8, 0x9e, 0x2f, 0xbe, 0xc0, 0xfd, 0x08, 0xbe,
  0x4a, 0xb6, 0x32, 0xbd, 0xeb, 0x3e, 0xc3, 0xbd, 0xb5, 0xbe, 0x5d, 0xbe,
  0xf2, 0x41, 0x75, 0x3b, 0x56, 0xae, 0xec, 0xbc, 0x8f, 0x6a, 0x12, 0x3e,
  0xca, 0x8f, 0x05, 0xbe, 0x6d, 0x44, 0x2e, 0x3c, 0x93, 0xc6, 0x54, 0xbd,
  0xcd, 0x66, 0x31, 0x3e, 0x39, 0x70, 0x33, 0x3b, 0x25, 0x89, 0x8a, 0xbc,
  0xb6, 0xde, 0xe9, 0xbd, 0x88, 0x94, 0xa0, 0xbd, 0x13, 0x66, 0x15, 0xbe,
  0xc8, 0x29, 0x7b, 0xbe, 0xf7, 0x69, 0x0c, 0x3d, 0x9b, 0xb8, 0x37, 0xbe,
  0xcb, 0x23, 0x5a, 0xbe, 0x33, 0x55, 0x20, 0x3e, 0x2f, 0xfc, 0x2b, 0x3d,
  0x9b, 0x94, 0xf2, 0x3c, 0x75, 0x1e, 0xf6, 0x3d, 0x69, 0x0a, 0x3f, 0xbd,
  0x7a, 0x64, 0x96, 0x3c, 0xe5, 0x73, 0x80, 0xbe, 0x90, 0x26, 0x60, 0xbd,
  0x3d, 0xfd, 0xeb, 0xbd, 0x04, 0x1d, 0xe8, 0xbd, 0x9c, 0xfb, 0x1b, 0x3d,
  0xad, 0x58, 0x5b, 0x3e, 0x14, 0x3d, 0x3e, 0x3e, 0x70, 0x5a, 0x80, 0xbd,
  0x2d, 0x51, 0xb1, 0xbe, 0x31, 0xb9, 0x3f, 0xbe, 0x0c, 0x90, 0x92, 0x3d,
  0xf0, 0xee, 0x11, 0x3e, 0x68, 0x34, 0x80, 0xbd, 0xf5, 0x2f, 0x07, 0x3d,
  0xc1, 0xc0, 0x93, 0x3e, 0xa7, 0xd8, 0xf5, 0xbd, 0x4a, 0xc0, 0x0d, 0xbe,
  0x1d, 0x17, 0xe8, 0xbd, 0x66, 0x1a, 0x17, 0xbe, 0xae, 0x03, 0x04, 0xbe,
  0x30, 0x33, 0xe0, 0x3d, 0x09, 0x2e, 0x5a, 0x3e, 0x35, 0xca, 0x8c, 0xbd,
  0x72, 0xf3, 0x94, 0x3d, 0x35, 0x1e, 0xfa, 0xbe, 0x29, 0xf0, 0x33, 0x3c,
  0x62, 0x7d, 0xb6, 0x3d, 0x8d, 0x1f, 0x20, 0x3e, 0xc2, 0x75, 0x86, 0x3e,
  0x7a, 0x55, 0x17, 0x3e, 0xdf, 0x8e, 0x45, 0x3c, 0x91, 0x2f, 0x62, 0xbc,
  0x0f, 0xef, 0x04, 0x3e, 0x19, 0x6c, 0xd9, 0x3e, 0xae, 0x17, 0x78, 0xbe,
  0x2d, 0xba, 0xb1, 0x3d, 0x69, 0x0b, 0xcd, 0x3d, 0xa7, 0x7d, 0x6e, 0x3e,
  0x24, 0x2f, 0xd7, 0x3c, 0x85, 0x9a, 0x29, 0x3e, 0xe1, 0xb0, 0x98, 0xbe,
  0xab, 0x7d, 0xaa, 0x3d, 0xee, 0x8c, 0xe2, 0x3d, 0x76, 0x45, 0x6c, 0x3e,
  0xe7, 0xdf, 0xe6, 0x3d, 0x36, 0xfc, 0x5a, 0x3e, 0x3e, 0xae, 0x9b, 0x3d,
  0x53, 0x7f, 0x62, 0x3c, 0x92, 0x83, 0x85, 0xbe, 0x68, 0x9b, 0xbd, 0x3e,
  0xd2, 0xf3, 0x88, 0xbc, 0x46, 0xb6, 0x3d, 0x3e, 0x5e, 0xdf, 0xd6, 0x3e,
  0xd1, 0x52, 0x6e, 0xbc, 0x74, 0xc3, 0x3e, 0xbd, 0x7c, 0xf5, 0xa3, 0xbd,
  0x9a, 0x18, 0x88, 0xbe, 0xca, 0x33, 0x0a, 0x3e, 0x12, 0x76, 0x3a, 0xbd,
  0x27, 0x67, 0x45, 0x3d, 0xb7, 0x05, 0x7b, 0xbe, 0x14, 0x91, 0xea, 0xbb,
  0xfb, 0xbb, 0x9e, 0x3e, 0x87, 0x81, 0xa6, 0x3d, 0x21, 0x91, 0x79, 0xbe,
  0xdd, 0x6d, 0x2d, 0x3e, 0x9b, 0x1c, 0x6b, 0xbe, 0x73, 0xe7, 0x5d, 0xbe,
  0x1e, 0xaf, 0x9d, 0xbc, 0xf4, 0xac, 0x48, 0xbe, 0x64, 0x8d, 0xe7, 0xbd,
  0x4c, 0xc1, 0xc9, 0xbc, 0x89, 0x37, 0x8c, 0xbe, 0x5e, 0xdd, 0xf2, 0x3d,
  0x67, 0x46, 0x11, 0x3e, 0x82, 0x1c, 0x54, 0xbd, 0xc9, 0x9b, 0xd0, 0xbd,
  0xbc, 0x94, 0xda, 0xbc, 0x59, 0xb1, 0xe3, 0x3d, 0x69, 0xf1, 0x36, 0x3d,
  0x3f, 0x5e, 0xc8, 0x3d, 0xc5, 0x71, 0x85, 0x3d, 0xa9, 0x3f, 0x5a, 0xbe,
  0x48, 0x00, 0xc6, 0xbc, 0x85, 0x2b, 0xa6, 0x3d, 0x3e, 0x6f, 0xa0, 0x3c,
  0x86, 0xb2, 0x88, 0xbe, 0xec, 0x36, 0x20, 0xbe, 0x5d, 0x9e, 0xa1, 0xbe,
  0x3a, 0x1c, 0x93, 0xbd, 0x22, 0xd8, 0x6f, 0x3c, 0x4d, 0x01, 0x4d, 0x3e,
  0xa0, 0x3a, 0x6f, 0xbe, 0x3f, 0x0d, 0x8a, 0x3d, 0xa7, 0x3a, 0x3d, 0x3e,
  0x79, 0xd0, 0x84, 0xbe, 0x6f, 0xc4, 0xc1, 0xbd, 0x6b, 0xee, 0x12, 0x3e,
  0x90, 0xc4, 0xfc, 0x3d, 0xf9, 0xe5, 0x97, 0xbd, 0x8f, 0x95, 0x0b, 0x3e,
  0x66, 0xfd, 0xff, 0xff, 0x10, 0x00, 0x00, 0x00, 0x07, 0x00, 0x00, 0x00,
  0x14, 0x00, 0x00, 0x00, 0x2c, 0x00, 0x00, 0x00, 0x02, 0x00, 0x00, 0x00,
  0x10, 0x00, 0x00, 0x00, 0x70, 0x00, 0x00, 0x00, 0x17, 0x00, 0x00, 0x00,
  0x73, 0x65, 0x71, 0x75, 0x65, 0x6e, 0x74, 0x69, 0x61, 0x6c, 0x2f, 0x64,
  0x65, 0x6e, 0x73, 0x65, 0x2f, 0x4d, 0x61, 0x74, 0x4d, 0x75, 0x6c, 0x00,
  0xd0, 0xfc, 0xff, 0xff, 0xda, 0xfd, 0xff, 0xff, 0x04, 0x00, 0x00, 0x00,
  0x08, 0x00, 0x00, 0x00, 0xff, 0xff, 0xff, 0xff, 0x70, 0x00, 0x00, 0x00,
  0x00, 0x00, 0x0e, 0x00, 0x18, 0x00, 0x08, 0x00, 0x07, 0x00, 0x0c, 0x00,
  0x10, 0x00, 0x14, 0x00, 0x0e, 0x00, 0x00, 0x00, 0x00, 0x00, 0x00, 0x02,
  0x10, 0x00, 0x00, 0x00, 0x06, 0x00, 0x00, 0x00, 0x10, 0x00, 0x00, 0x00,
  0x2c, 0x00, 0x00, 0x00, 0x01, 0x00, 0x00, 0x00, 0x02, 0x00, 0x00, 0x00,
  0x18, 0x00, 0x00, 0x00, 0x73, 0x65, 0x71, 0x75, 0x65, 0x6e, 0x74, 0x69,
  0x61, 0x6c, 0x2f, 0x66, 0x6c, 0x61, 0x74, 0x74, 0x65, 0x6e, 0x2f, 0x43,
  0x6f, 0x6e, 0x73, 0x74, 0x00, 0x00, 0x00, 0x00, 0x38, 0xfd, 0xff, 0xff,
  0x42, 0xfe, 0xff, 0xff, 0x04, 0x00, 0x00, 0x00, 0x0c, 0x00, 0x00, 0x00,
  0x07, 0xa5, 0x09, 0xc0, 0x8d, 0x82, 0x4a, 0xc0, 0xac, 0xa2, 0x65, 0x40,
  0x26, 0xfe, 0xff, 0xff, 0x10, 0x00, 0x00, 0x00, 0x05, 0x00, 0x00, 0x00,
  0x10, 0x00, 0x00, 0x00, 0x44, 0x00, 0x00, 0x00, 0x01, 0x00, 0x00, 0x00,
  0x03, 0x00, 0x00, 0x00, 0x32, 0x00, 0x00, 0x00, 0x73, 0x65, 0x71, 0x75,
  0x65, 0x6e, 0x74, 0x69, 0x61, 0x6c, 0x2f, 0x64, 0x65, 0x6e, 0x73, 0x65,
  0x5f, 0x31, 0x2f, 0x42, 0x69, 0x61, 0x73, 0x41, 0x64, 0x64, 0x2f, 0x52,
  0x65, 0x61, 0x64, 0x56, 0x61, 0x72, 0x69, 0x61, 0x62, 0x6c, 0x65, 0x4f,
  0x70, 0x2f, 0x72, 0x65, 0x73, 0x6f, 0x75, 0x72, 0x63, 0x65, 0x00, 0x00,
  0xa8, 0xfd, 0xff, 0xff, 0xb2, 0xfe, 0xff, 0xff, 0x04, 0x00, 0x00, 0x00,
  0x40, 0x00, 0x00, 0x00, 0x6c, 0xd8, 0x8b, 0xbf, 0x1d, 0xc2, 0x9c, 0xbe,
  0xbc, 0x16, 0x86, 0xbf, 0xd2, 0xf4, 0xb0, 0xbf, 0xe6, 0x71, 0x82, 0xbd,
  0xba, 0x57, 0x96, 0xbf, 0xc0, 0xe8, 0xc2, 0xbd, 0xc4, 0x04, 0xbe, 0xbe,
  0xfc, 0x1f, 0x44, 0xbe, 0x31, 0x72, 0x2c, 0xbd, 0x52, 0xe2, 0x04, 0xbf,
  0x76, 0x56, 0x25, 0x40, 0xe6, 0x9a, 0x1f, 0xbf, 0x7c, 0x49, 0x03, 0xc0,
  0xf4, 0x8f, 0xfa, 0xbd, 0x16, 0xd0, 0xac, 0xbe, 0xca, 0xfe, 0xff, 0xff,
  0x10, 0x00, 0x00, 0x00, 0x04, 0x00, 0x00, 0x00, 0x10, 0x00, 0x00, 0x00,
  0x44, 0x00, 0x00, 0x00, 0x01, 0x00, 0x00, 0x00, 0x10, 0x00, 0x00, 0x00,
  0x30, 0x00, 0x00, 0x00, 0x73, 0x65, 0x71, 0x75, 0x65, 0x6e, 0x74, 0x69,
  0x61, 0x6c, 0x2f, 0x64, 0x65, 0x6e, 0x73, 0x65, 0x2f, 0x42, 0x69, 0x61,
  0x73, 0x41, 0x64, 0x64, 0x2f, 0x52, 0x65, 0x61, 0x64, 0x56, 0x61, 0x72,
  0x69, 0x61, 0x62, 0x6c, 0x65, 0x4f, 0x70, 0x2f, 0x72, 0x65, 0x73, 0x6f,
  0x75, 0x72, 0x63, 0x65, 0x00, 0x00, 0x00, 0x00, 0x4c, 0xfe, 0xff, 0xff,
  0x56, 0xff, 0xff, 0xff, 0x04, 0x00, 0x00, 0x00, 0x40, 0x00, 0x00, 0x00,
  0x7c, 0x47, 0xd3, 0xbe, 0x2d, 0xe9, 0x81, 0xbc, 0x61, 0xa2, 0xa3, 0xbf,
  0x67, 0xde, 0x04, 0x3f, 0xa0, 0xcf, 0x99, 0xbd, 0x3a, 0xec, 0x93, 0xbe,
  0xa3, 0x6d, 0x24, 0xbe, 0xee, 0x06, 0x99, 0xbf, 0x8e, 0xbf, 0xa7, 0x3d,
  0xab, 0x4a, 0x79, 0xbf, 0x3c, 0xf8, 0x22, 0xbf, 0x24, 0x28, 0xe0, 0xbf,
  0x44, 0x16, 0xfe, 0xbe, 0xd9, 0xb7, 0x3e, 0x40, 0xfb, 0xe5, 0x83, 0xbf,
  0xee, 0xd3, 0x72, 0xbe, 0x6e, 0xff, 0xff, 0xff, 0x10, 0x00, 0x00, 0x00,
  0x03, 0x00, 0x00, 0x00, 0x10, 0x00, 0x00, 0x00, 0x48, 0x00, 0x00, 0x00,
  0x01, 0x00, 0x00, 0x00, 0x10, 0x00, 0x00, 0x00, 0x33, 0x00, 0x00, 0x00,
  0x73, 0x65, 0x71, 0x75, 0x65, 0x6e, 0x74, 0x69, 0x61, 0x6c, 0x2f, 0x63,
  0x6f, 0x6e, 0x76, 0x32, 0x64, 0x5f, 0x31, 0x2f, 0x42, 0x69, 0x61, 0x73,
  0x41, 0x64, 0x64, 0x2f, 0x52, 0x65, 0x61, 0x64, 0x56, 0x61, 0x72, 0x69,
  0x61, 0x62, 0x6c, 0x65, 0x4f, 0x70, 0x2f, 0x72, 0x65, 0x73, 0x6f, 0x75,
  0x72, 0x63, 0x65, 0x00, 0x04, 0x00, 0x06, 0x00, 0x04, 0x00, 0x00, 0x00,
  0x00, 0x00, 0x06, 0x00, 0x08, 0x00, 0x04, 0x00, 0x06, 0x00, 0x00, 0x00,
  0x04, 0x00, 0x00, 0x00, 0x20, 0x00, 0x00, 0x00, 0xbb, 0x11, 0x14, 0xc0,
  0x95, 0x91, 0xcc, 0xbf, 0x83, 0x5f, 0x8b, 0xbf, 0xe7, 0x26, 0x64, 0xbf,
  0xd7, 0xf3, 0x12, 0xc0, 0x3b, 0x3c, 0xc2, 0xbf, 0x3e, 0x90, 0xe5, 0xbe,
  0xd7, 0x6a, 0xe7, 0xbf, 0x00, 0x00, 0x0e, 0x00, 0x14, 0x00, 0x04, 0x00,
  0x00, 0x00, 0x08, 0x00, 0x0c, 0x00, 0x10, 0x00, 0x0e, 0x00, 0x00, 0x00,
  0x10, 0x00, 0x00, 0x00, 0x02, 0x00, 0x00, 0x00, 0x10, 0x00, 0x00, 0x00,
  0x44, 0x00, 0x00, 0x00, 0x01, 0x00, 0x00, 0x00, 0x08, 0x00, 0x00, 0x00,
  0x31, 0x00, 0x00, 0x00, 0x73, 0x65, 0x71, 0x75, 0x65, 0x6e, 0x74, 0x69,
  0x61, 0x6c, 0x2f, 0x63, 0x6f, 0x6e, 0x76, 0x32, 0x64, 0x2f, 0x42, 0x69,
  0x61, 0x73, 0x41, 0x64, 0x64, 0x2f, 0x52, 0x65, 0x61, 0x64, 0x56, 0x61,
  0x72, 0x69, 0x61, 0x62, 0x6c, 0x65, 0x4f, 0x70, 0x2f, 0x72, 0x65, 0x73,
  0x6f, 0x75, 0x72, 0x63, 0x65, 0x00, 0x00, 0x00, 0x90, 0xff, 0xff, 0xff,
  0x14, 0x00, 0x18, 0x00, 0x04, 0x00, 0x00, 0x00, 0x08, 0x00, 0x0c, 0x00,
  0x10, 0x00, 0x00, 0x00, 0x00, 0x00, 0x14, 0x00, 0x14, 0x00, 0x00, 0x00,
  0x14, 0x00, 0x00, 0x00, 0x01, 0x00, 0x00, 0x00, 0x20, 0x00, 0x00, 0x00,
  0x44, 0x00, 0x00, 0x00, 0x2c, 0x00, 0x00, 0x00, 0x04, 0x00, 0x00, 0x00,
  0x01, 0x00, 0x00, 0x00, 0x40, 0x00, 0x00, 0x00, 0x03, 0x00, 0x00, 0x00,
  0x01, 0x00, 0x00, 0x00, 0x0c, 0x00, 0x00, 0x00, 0x63, 0x6f, 0x6e, 0x76,
  0x32, 0x64, 0x5f, 0x69, 0x6e, 0x70, 0x75, 0x74, 0x00, 0x00, 0x00, 0x00,
  0x04, 0x00, 0x00, 0x00, 0xff, 0xff, 0xff, 0xff, 0x40, 0x00, 0x00, 0x00,
  0x03, 0x00, 0x00, 0x00, 0x01, 0x00, 0x00, 0x00, 0xfc, 0xff, 0xff, 0xff,
  0x04, 0x00, 0x04, 0x00, 0x04, 0x00, 0x00, 0x00
};


unsigned int model_tflite_len = 13052;// Fill the int in `src/model.cc` here
